{
  "version": "1.0",
  "truncation": null,
  "padding": null,
  "added_tokens": [
    {
      "id": 0,
      "content": "<|endoftext|>",
      "single_word": false,
      "lstrip": false,
      "rstrip": false,
      "normalized": false,
      "special": true
    },
    {
      "id": 1,
      "content": "<|pad|>",
      "single_word": false,
      "lstrip": false,
      "rstrip": false,
      "normalized": false,
      "special": true
    },
    {
      "id": 2,
      "content": "<|user|>",
      "single_word": false,
      "lstrip": false,
      "rstrip": false,
      "normalized": false,
      "special": true
    },
    {
      "id": 3,
      "content": "<|assistant|>",
      "single_word": false,
      "lstrip": false,
      "rstrip": false,
      "normalized": false,
      "special": true
    }
  ],
  "normalizer": null,
  "pre_tokenizer": {
    "type": "ByteLevel",
    "add_prefix_space": false,
    "trim_offsets": true,
    "use_regex": true
  },
  "post_processor": null,
  "decoder": {
    "type": "ByteLevel",
    "add_prefix_space": true,
    "trim_offsets": true,
    "use_regex": true
  },
  "model": {
    "type": "BPE",
    "dropout": null,
    "unk_token": null,
    "continuing_subword_prefix": null,
    "end_of_word_suffix": null,
    "fuse_unk": false,
    "byte_fallback": false,
    "ignore_merges": false,
    "vocab": {
      "<|endoftext|>": 0,
      "<|pad|>": 1,
      "<|user|>": 2,
      "<|assistant|>": 3,
      "!": 4,
      "\"": 5,
      "#": 6,
      "$": 7,
      "%": 8,
      "&": 9,
      "'": 10,
      "(": 11,
      ")": 12,
      "*": 13,
      "+": 14,
      ",": 15,
      "-": 16,
      ".": 17,
      "/": 18,
      "0": 19,
      "1": 20,
      "2": 21,
      "3": 22,
      "4": 23,
      "5": 24,
      "6": 25,
      "7": 26,
      "8": 27,
      "9": 28,
      ":": 29,
      ";": 30,
      "<": 31,
      "=": 32,
      ">": 33,
      "?": 34,
      "@": 35,
      "A": 36,
      "B": 37,
      "C": 38,
      "D": 39,
      "E": 40,
      "F": 41,
      "G": 42,
      "H": 43,
      "I": 44,
      "J": 45,
      "K": 46,
      "L": 47,
      "M": 48,
      "N": 49,
      "O": 50,
      "P": 51,
      "Q": 52,
      "R": 53,
      "S": 54,
      "T": 55,
      "U": 56,
      "V": 57,
      "W": 58,
      "X": 59,
      "Y": 60,
      "Z": 61,
      "[": 62,
      "\\": 63,
      "]": 64,
      "^": 65,
      "_": 66,
      "`": 67,
      "a": 68,
      "b": 69,
      "c": 70,
      "d": 71,
      "e": 72,
      "f": 73,
      "g": 74,
      "h": 75,
      "i": 76,
      "j": 77,
      "k": 78,
      "l": 79,
      "m": 80,
      "n": 81,
      "o": 82,
      "p": 83,
      "q": 84,
      "r": 85,
      "s": 86,
      "t": 87,
      "u": 88,
      "v": 89,
      "w": 90,
      "x": 91,
      "y": 92,
      "z": 93,
      "{": 94,
      "|": 95,
      "}": 96,
      "~": 97,
      "¡": 98,
      "¢": 99,
      "£": 100,
      "¤": 101,
      "¥": 102,
      "¦": 103,
      "§": 104,
      "¨": 105,
      "©": 106,
      "ª": 107,
      "«": 108,
      "¬": 109,
      "®": 110,
      "¯": 111,
      "°": 112,
      "±": 113,
      "²": 114,
      "³": 115,
      "´": 116,
      "µ": 117,
      "¶": 118,
      "·": 119,
      "¸": 120,
      "¹": 121,
      "º": 122,
      "»": 123,
      "¼": 124,
      "½": 125,
      "¾": 126,
      "¿": 127,
      "À": 128,
      "Á": 129,
      "Â": 130,
      "Ã": 131,
      "Ä": 132,
      "Å": 133,
      "Æ": 134,
      "Ç": 135,
      "È": 136,
      "É": 137,
      "Ê": 138,
      "Ë": 139,
      "Ì": 140,
      "Í": 141,
      "Î": 142,
      "Ï": 143,
      "Ð": 144,
      "Ñ": 145,
      "Ò": 146,
      "Ó": 147,
      "Ô": 148,
      "Õ": 149,
      "Ö": 150,
      "×": 151,
      "Ø": 152,
      "Ù": 153,
      "Ú": 154,
      "Û": 155,
      "Ü": 156,
      "Ý": 157,
      "Þ": 158,
      "ß": 159,
      "à": 160,
      "á": 161,
      "â": 162,
      "ã": 163,
      "ä": 164,
      "å": 165,
      "æ": 166,
      "ç": 167,
      "è": 168,
      "é": 169,
      "ê": 170,
      "ë": 171,
      "ì": 172,
      "í": 173,
      "î": 174,
      "ï": 175,
      "ð": 176,
      "ñ": 177,
      "ò": 178,
      "ó": 179,
      "ô": 180,
      "õ": 181,
      "ö": 182,
      "÷": 183,
      "ø": 184,
      "ù": 185,
      "ú": 186,
      "û": 187,
      "ü": 188,
      "ý": 189,
      "þ": 190,
      "ÿ": 191,
      "Ā": 192,
      "ā": 193,
      "Ă": 194,
      "ă": 195,
      "Ą": 196,
      "ą": 197,
      "Ć": 198,
      "ć": 199,
      "Ĉ": 200,
      "ĉ": 201,
      "Ċ": 202,
      "ċ": 203,
      "Č": 204,
      "č": 205,
      "Ď": 206,
      "ď": 207,
      "Đ": 208,
      "đ": 209,
      "Ē": 210,
      "ē": 211,
      "Ĕ": 212,
      "ĕ": 213,
      "Ė": 214,
      "ė": 215,
      "Ę": 216,
      "ę": 217,
      "Ě": 218,
      "ě": 219,
      "Ĝ": 220,
      "ĝ": 221,
      "Ğ": 222,
      "ğ": 223,
      "Ġ": 224,
      "ġ": 225,
      "Ģ": 226,
      "ģ": 227,
      "Ĥ": 228,
      "ĥ": 229,
      "Ħ": 230,
      "ħ": 231,
      "Ĩ": 232,
      "ĩ": 233,
      "Ī": 234,
      "ī": 235,
      "Ĭ": 236,
      "ĭ": 237,
      "Į": 238,
      "į": 239,
      "İ": 240,
      "ı": 241,
      "Ĳ": 242,
      "ĳ": 243,
      "Ĵ": 244,
      "ĵ": 245,
      "Ķ": 246,
      "ķ": 247,
      "ĸ": 248,
      "Ĺ": 249,
      "ĺ": 250,
      "Ļ": 251,
      "ļ": 252,
      "Ľ": 253,
      "ľ": 254,
      "Ŀ": 255,
      "ŀ": 256,
      "Ł": 257,
      "ł": 258,
      "Ń": 259,
      "Ġd": 260,
      "es": 261,
      "Ã©": 262,
      "Ġl": 263,
      "Ġp": 264,
      "en": 265,
      "on": 266,
      "re": 267,
      "Ġde": 268,
      "ou": 269,
      "Ġc": 270,
      "an": 271,
      "Ġs": 272,
      "er": 273,
      "ti": 274,
      "et": 275,
      "un": 276,
      "is": 277,
      "qu": 278,
      "in": 279,
      "Ġun": 280,
      "te": 281,
      "Ġa": 282,
      "Ġla": 283,
      "ent": 284,
      "Ġet": 285,
      "Ġm": 286,
      "le": 287,
      "our": 288,
      "ra": 289,
      "rÃ©": 290,
      "it": 291,
      "Ġt": 292,
      "tion": 293,
      "ĠÃ": 294,
      "ur": 295,
      "ar": 296,
      "Ġf": 297,
      "om": 298,
      "Ġdes": 299,
      "Ġle": 300,
      "Ġles": 301,
      "ĠÃł": 302,
      "que": 303,
      "il": 304,
      "or": 305,
      "Ġv": 306,
      "Ġune": 307,
      "ant": 308,
      "Ã¨": 309,
      "Ġen": 310,
      "Ġpour": 311,
      "ment": 312,
      "ne": 313,
      "ve": 314,
      "ĠÃ©": 315,
      "ie": 316,
      "ro": 317,
      "ce": 318,
      "us": 319,
      "la": 320,
      "Ġb": 321,
      "Ġ-": 322,
      "au": 323,
      "li": 324,
      "ch": 325,
      "est": 326,
      "Ġn": 327,
      "se": 328,
      "ans": 329,
      "ge": 330,
      "ir": 331,
      "ta": 332,
      "ire": 333,
      "me": 334,
      "ri": 335,
      "Ġdu": 336,
      "mp": 337,
      "Ġch": 338,
      "ation": 339,
      "Ġg": 340,
      "Ġcon": 341,
      "ĠrÃ©": 342,
      "Ġre": 343,
      "di": 344,
      "de": 345,
      "Ġqu": 346,
      "al": 347,
      "Ġest": 348,
      "res": 349,
      "Ġe": 350,
      "Ġ:": 351,
      "Ġ1": 352,
      "Ġcom": 353,
      "ĠdÃ©": 354,
      "Ġsur": 355,
      "Ġdans": 356,
      "ci": 357,
      "les": 358,
      "tÃ©": 359,
      "ĠP": 360,
      "Ġj": 361,
      "as": 362,
      "Ġpar": 363,
      "Ġin": 364,
      "ĠC": 365,
      "ot": 366,
      "ĠL": 367,
      "Ġau": 368,
      "Ġpro": 369,
      "ers": 370,
      "ure": 371,
      "ff": 372,
      "el": 373,
      "si": 374,
      "ol": 375,
      "oi": 376,
      "Ġque": 377,
      "itÃ©": 378,
      "Ġr": 379,
      "tes": 380,
      "Ġpl": 381,
      "Ã©e": 382,
      "ais": 383,
      "ui": 384,
      "ous": 385,
      "ces": 386,
      "ma": 387,
      "ine": 388,
      "Ġ2": 389,
      "os": 390,
      "Ã¨re": 391,
      "end": 392,
      "ont": 393,
      "Ġh": 394,
      "Ġte": 395,
      "eu": 396,
      "Ġ\"": 397,
      "ĠE": 398,
      "ĠS": 399,
      "pa": 400,
      "Ġqui": 401,
      "ĠA": 402,
      "at": 403,
      "vec": 404,
      "ouve": 405,
      "mes": 406,
      "onne": 407,
      "ris": 408,
      "Ġfa": 409,
      "Ġavec": 410,
      "ques": 411,
      "Ġex": 412,
      "ter": 413,
      "pp": 414,
      "onn": 415,
      "ction": 416,
      "ons": 417,
      "ĠmÃ©": 418,
      "lle": 419,
      "gu": 420,
      "ĠprÃ©": 421,
      "Ã¢": 422,
      "ran": 423,
      "ĠM": 424,
      "ale": 425,
      "Ġo": 426,
      "du": 427,
      "Ġse": 428,
      "age": 429,
      "Ãª": 430,
      "Ġi": 431,
      "tre": 432,
      "ic": 433,
      "til": 434,
      "ĠD": 435,
      "ique": 436,
      "rÃ©e": 437,
      "ac": 438,
      "tique": 439,
      "ette": 440,
      "Ã©s": 441,
      "pe": 442,
      "Ġ3": 443,
      "Ġph": 444,
      "ouv": 445,
      "Ġca": 446,
      "rer": 447,
      "Ġcu": 448,
      "Ġso": 449,
      "gn": 450,
      "ux": 451,
      "ĠI": 452,
      "ence": 453,
      "Ġcomp": 454,
      "Ġsa": 455,
      "urs": 456,
      "ble": 457,
      "Ġma": 458,
      "Ġplus": 459,
      "Ġsu": 460,
      "Ġpo": 461,
      "Ġdi": 462,
      "Ã©es": 463,
      "ill": 464,
      "Ã©r": 465,
      "Ġou": 466,
      "oc": 467,
      "che": 468,
      "ĠF": 469,
      "Ã©c": 470,
      "ĠR": 471,
      "tilis": 472,
      "ort": 473,
      "Ġtra": 474,
      "am": 475,
      "Ġmo": 476,
      "ph": 477,
      "Ġpa": 478,
      "ĠT": 479,
      "Ã©n": 480,
      "Ġ5": 481,
      "rouve": 482,
      "aux": 483,
      "Ġmon": 484,
      "og": 485,
      "ĠJ": 486,
      "ĠÃ©ta": 487,
      "Ġrec": 488,
      "ille": 489,
      "Ġce": 490,
      "Ġ4": 491,
      "to": 492,
      "tif": 493,
      "um": 494,
      "Ġpr": 495,
      "tu": 496,
      "Ġsi": 497,
      "une": 498,
      "Ġli": 499,
      "La": 500,
      "utilis": 501,
      "ante": 502,
      "ins": 503,
      "ser": 504,
      "iste": 505,
      "Trouve": 506,
      "lo": 507,
      "ru": 508,
      "vant": 509,
      "and": 510,
      "ien": 511,
      "ents": 512,
      "ten": 513,
      "lÃ©": 514,
      "otre": 515,
      "ger": 516,
      "ĠB": 517,
      "lan": 518,
      "entre": 519,
      "bre": 520,
      "st": 521,
      "Ġpas": 522,
      "ois": 523,
      "ai": 524,
      "ance": 525,
      "ĠEn": 526,
      "ments": 527,
      "Ã¨me": 528,
      "Ġcour": 529,
      "ration": 530,
      "Ġsui": 531,
      "Ġfor": 532,
      "Ġth": 533,
      "Ġsont": 534,
      "tiv": 535,
      "Ġar": 536,
      "Ã®": 537,
      "aire": 538,
      "Ġra": 539,
      "pÃ©": 540,
      "Ġpers": 541,
      "CrÃ©e": 542,
      "vre": 543,
      "eur": 544,
      "for": 545,
      "Ġimp": 546,
      "ĠV": 547,
      "Le": 548,
      "ges": 549,
      "Ġpla": 550,
      "Ġutilis": 551,
      "oir": 552,
      "ts": 553,
      "va": 554,
      "RÃ©": 555,
      "pes": 556,
      "ĠÃ©c": 557,
      "ture": 558,
      "Ġan": 559,
      "iÃ¨re": 560,
      "Ġpeu": 561,
      "vers": 562,
      "Ġdiff": 563,
      "Ã§": 564,
      "Ġil": 565,
      "Ġac": 566,
      "vi": 567,
      "00": 568,
      "Ġam": 569,
      "cu": 570,
      "Åĵ": 571,
      "jou": 572,
      "ations": 573,
      "Ġtr": 574,
      "its": 575,
      "eau": 576,
      "ĠrÃ©s": 577,
      "ab": 578,
      "Ã´": 579,
      "Ã©g": 580,
      "ond": 581,
      "erre": 582,
      "Ġapp": 583,
      "Ġtemp": 584,
      "ĠcrÃ©": 585,
      "Ġentre": 586,
      "Ġ?": 587,
      "Ġpu": 588,
      "ĠN": 589,
      "Ġcar": 590,
      "tin": 591,
      "iss": 592,
      "Ġnom": 593,
      "lique": 594,
      "Ã©ra": 595,
      "iques": 596,
      "lu": 597,
      "endant": 598,
      "ires": 599,
      "Ġson": 600,
      "oma": 601,
      "th": 602,
      "vir": 603,
      "DÃ©c": 604,
      "Ġliste": 605,
      "Pour": 606,
      "ue": 607,
      "ĠpÃ¢": 608,
      "Ġcomm": 609,
      "Ġtou": 610,
      "oy": 611,
      "ĠG": 612,
      "Ġes": 613,
      "dige": 614,
      "Ġcou": 615,
      "Ġmin": 616,
      "ĠdÃ©c": 617,
      "ver": 618,
      "lles": 619,
      "ĠdiffÃ©r": 620,
      "po": 621,
      "emp": 622,
      "im": 623,
      "Ġper": 624,
      "Ġ(": 625,
      "DÃ©cris": 626,
      "Ġphra": 627,
      "ants": 628,
      "Ġje": 629,
      "elle": 630,
      "Ġvous": 631,
      "endre": 632,
      "ens": 633,
      "Ġaux": 634,
      "toire": 635,
      "tiques": 636,
      "RÃ©dige": 637,
      "Ġmot": 638,
      "ourn": 639,
      "lÃ¨": 640,
      "tres": 641,
      "ier": 642,
      "ĠLes": 643,
      "tions": 644,
      "lic": 645,
      "ls": 646,
      "Åĵu": 647,
      "tra": 648,
      "ĠÃī": 649,
      "Ġvotre": 650,
      "istoire": 651,
      "Ġfaire": 652,
      "Ġrecette": 653,
      "Ġsou": 654,
      "Ġmais": 655,
      "tis": 656,
      "Ġminu": 657,
      "Ġvie": 658,
      "grÃ©": 659,
      "Ġ6": 660,
      "xp": 661,
      "Ġdis": 662,
      "Ġjus": 663,
      "tri": 664,
      "Ġdonn": 665,
      "ord": 666,
      "cess": 667,
      "ĠPar": 668,
      "Ġmar": 669,
      "cre": 670,
      "gne": 671,
      "ange": 672,
      "Ġminutes": 673,
      "ures": 674,
      "Ã©ri": 675,
      "Ã¨s": 676,
      "des": 677,
      "teur": 678,
      "Ġexp": 679,
      "ches": 680,
      "Ġcha": 681,
      "moi": 682,
      "ĠU": 683,
      "ouver": 684,
      "ĠprÃ©pa": 685,
      "ĠLa": 686,
      "ul": 687,
      "Donne": 688,
      "Ġphrase": 689,
      "if": 690,
      "Ġpendant": 691,
      "tivitÃ©": 692,
      "Ġres": 693,
      "rÃ©s": 694,
      "ven": 695,
      "Ġcli": 696,
      "matique": 697,
      "olog": 698,
      "ion": 699,
      "Ġplan": 700,
      "cher": 701,
      "ĠIn": 702,
      "use": 703,
      "Ġal": 704,
      "Ġses": 705,
      "ard": 706,
      "Ġeff": 707,
      "ature": 708,
      "Les": 709,
      "ĠIl": 710,
      "Ġ10": 711,
      "ĠmÃ©lan": 712,
      "Ġprin": 713,
      "raph": 714,
      "ise": 715,
      "ites": 716,
      "id": 717,
      "ines": 718,
      "ĠCh": 719,
      "ses": 720,
      "omm": 721,
      "Ãł": 722,
      "iser": 723,
      "Ġcons": 724,
      "Ġcomme": 725,
      "Ġtu": 726,
      "pu": 727,
      "Ġy": 728,
      "ec": 729,
      "dre": 730,
      "ets": 731,
      "Ġmonde": 732,
      "eux": 733,
      "Ġas": 734,
      "alement": 735,
      "Ġne": 736,
      "Ġprodu": 737,
      "Ġob": 738,
      "nement": 739,
      "Ġfon": 740,
      "ĠLe": 741,
      "eti": 742,
      "Ġinc": 743,
      "Ġme": 744,
      "fs": 745,
      "sion": 746,
      "Ġsoci": 747,
      "ola": 748,
      "ente": 749,
      "Ġsy": 750,
      "Ġprof": 751,
      "cle": 752,
      "Ġdeux": 753,
      "tr": 754,
      "olu": 755,
      "ils": 756,
      "uite": 757,
      "Ġgran": 758,
      "fin": 759,
      "Ã¨res": 760,
      "Ġ7": 761,
      "Ġman": 762,
      "Ã©gu": 763,
      "erg": 764,
      "Ġtemps": 765,
      "tez": 766,
      "laire": 767,
      "bles": 768,
      "enti": 769,
      "ad": 770,
      "Ġnature": 771,
      "ĠÅĵu": 772,
      "grÃ©di": 773,
      "Ġparti": 774,
      "ages": 775,
      "Ã©gumes": 776,
      "ap": 777,
      "grÃ©dients": 778,
      "Ġren": 779,
      "ctions": 780,
      "ig": 781,
      "Ġat": 782,
      "Ġconc": 783,
      "Ġexemp": 784,
      "gue": 785,
      "mb": 786,
      "ĠÃ©qu": 787,
      "ĠH": 788,
      "form": 789,
      "ys": 790,
      "Ġav": 791,
      "ez": 792,
      "ĠÃ©g": 793,
      "ĠO": 794,
      "raÃ®": 795,
      "tant": 796,
      "pi": 797,
      "Ġleur": 798,
      "ĠÃ©tapes": 799,
      "Ġbien": 800,
      "ales": 801,
      "Ġpersonn": 802,
      "Ġcomment": 803,
      "ĠcÃ©": 804,
      "entes": 805,
      "Ġsau": 806,
      "Ġser": 807,
      "Ġpoi": 808,
      "Ã©qu": 809,
      "Ġjusqu": 810,
      "Ġtrava": 811,
      "Ġnouve": 812,
      "Ġvi": 813,
      "Ã©tÃ©": 814,
      "Ġba": 815,
      "Ġprinci": 816,
      "min": 817,
      "Ġpi": 818,
      "ĠAjou": 819,
      "Ġpuis": 820,
      "ommes": 821,
      "Ġchange": 822,
      "Ġsuivant": 823,
      "Ġsel": 824,
      "ex": 825,
      "antes": 826,
      "ĠgÃ©n": 827,
      "Ġsucre": 828,
      "sez": 829,
      "ours": 830,
      "ler": 831,
      "onnement": 832,
      "Ġcor": 833,
      "Ġbou": 834,
      "ĠlÃ©gumes": 835,
      "Ġco": 836,
      "iter": 837,
      "Ġ8": 838,
      "ber": 839,
      "Ġri": 840,
      "able": 841,
      "ors": 842,
      "Qu": 843,
      "Ġgra": 844,
      "Ġrep": 845,
      "vÃ©": 846,
      "ĠthÃ©": 847,
      "ĠpÃ¢te": 848,
      "aires": 849,
      "ĠParis": 850,
      "ocola": 851,
      "Exp": 852,
      "ren": 853,
      "Ġpeut": 854,
      "\".": 855,
      "rais": 856,
      "Ġor": 857,
      "ies": 858,
      "ĠÃª": 859,
      "ĠrÃ©du": 860,
      "Ã»": 861,
      "Ġchocola": 862,
      "Ġavant": 863,
      "ut": 864,
      "Ãªte": 865,
      "histoire": 866,
      "Ġnombre": 867,
      "ume": 868,
      "Explique": 869,
      "Ġchocolat": 870,
      "ĠÃ©tait": 871,
      "Ġtoma": 872,
      "Ġont": 873,
      "mer": 874,
      "Ġvoy": 875,
      "suite": 876,
      "Ġrela": 877,
      "Ġimport": 878,
      "ite": 879,
      "Ġcette": 880,
      "pr": 881,
      "Ġrou": 882,
      "vironnement": 883,
      "ron": 884,
      "rie": 885,
      "Ġpos": 886,
      "ĠsÃ©": 887,
      "tive": 888,
      "omme": 889,
      "Ġvis": 890,
      "ole": 891,
      "rise": 892,
      "In": 893,
      "cer": 894,
      "Ġton": 895,
      "let": 896,
      "vent": 897,
      "uses": 898,
      "ing": 899,
      "stru": 900,
      "ĠprÃ©s": 901,
      "Ġ=": 902,
      "Ġexemple": 903,
      "alitÃ©": 904,
      "olution": 905,
      "hui": 906,
      "ances": 907,
      "RÃ©s": 908,
      "cÃ©": 909,
      "Ġpara": 910,
      "ili": 911,
      "sique": 912,
      "Ġmots": 913,
      "ĠÃªtre": 914,
      "auff": 915,
      "ĠJe": 916,
      "Ġclimatique": 917,
      "oudre": 918,
      "fÃ©": 919,
      "bres": 920,
      "Ã©li": 921,
      "Ã©t": 922,
      "illes": 923,
      "ĠÃīta": 924,
      "Ġbeur": 925,
      "ĠrÃ©gu": 926,
      "ences": 927,
      "ang": 928,
      "mo": 929,
      "Ġfin": 930,
      "las": 931,
      "Ġter": 932,
      "ĠprÃ©parer": 933,
      "ĠÃ©tÃ©": 934,
      "Ġlum": 935,
      "Ġutilisant": 936,
      "Ġfois": 937,
      "Ġrest": 938,
      "entif": 939,
      "Un": 940,
      "gan": 941,
      "ode": 942,
      "Ġfonction": 943,
      "oli": 944,
      "one": 945,
      "ĠPrÃ©": 946,
      "ĠmÃ©lange": 947,
      "ĠvÃ©g": 948,
      "itation": 949,
      "ĠÃ©galement": 950,
      "dÃ©": 951,
      "maine": 952,
      "Ġcro": 953,
      "Ġmes": 954,
      "Ġfar": 955,
      "enne": 956,
      "Ġpommes": 957,
      "Ġad": 958,
      "Ġdou": 959,
      "mi": 960,
      "ranÃ§": 961,
      "velo": 962,
      "ĠCe": 963,
      "Ġ!": 964,
      "velopp": 965,
      "imp": 966,
      "ande": 967,
      "ĠcrÃ©er": 968,
      "Ġtravail": 969,
      "Ġtout": 970,
      "onom": 971,
      "chn": 972,
      "Ġprocess": 973,
      "pose": 974,
      "ĠrÃ©guli": 975,
      "Ġpersonne": 976,
      "ate": 977,
      "Ã©ta": 978,
      "Ġprocessus": 979,
      "Ã©lio": 980,
      "estion": 981,
      "Ġtrans": 982,
      "ranÃ§ais": 983,
      "Ġtro": 984,
      "Ġsole": 985,
      "ergie": 986,
      "Ġsoleil": 987,
      "per": 988,
      "je": 989,
      "rom": 990,
      "ettre": 991,
      "tor": 992,
      "Ġquel": 993,
      "Ġnous": 994,
      "Ġmus": 995,
      "raphe": 996,
      "he": 997,
      "rance": 998,
      "Ġconf": 999,
      "ner": 1000,
      "Ġtechn": 1001,
      "iel": 1002,
      "Ġnu": 1003,
      "ĠmÃ©th": 1004,
      "Ġchaque": 1005,
      "Ġfour": 1006,
      "Ġcol": 1007,
      "Ġjourn": 1008,
      "ĠW": 1009,
      "Ġpre": 1010,
      "lec": 1011,
      "Ġchangement": 1012,
      "ĠElle": 1013,
      "iture": 1014,
      "ĠnÃ©": 1015,
      "Ġcul": 1016,
      "ĠÅĵufs": 1017,
      "asse": 1018,
      "Ġvoyage": 1019,
      "Ġajou": 1020,
      "Ġtels": 1021,
      "Ġfarine": 1022,
      "ĠfranÃ§ais": 1023,
      "Ġphy": 1024,
      "Ġbi": 1025,
      "Ġsuiv": 1026,
      "Ġbeurre": 1027,
      "tionne": 1028,
      "Ġess": 1029,
      "app": 1030,
      "nes": 1031,
      "Ġsuis": 1032,
      "inte": 1033,
      "ĠdonnÃ©es": 1034,
      "jet": 1035,
      "bl": 1036,
      "ĠcÃ©lÃ¨": 1037,
      "gnif": 1038,
      "Ġmaison": 1039,
      "Ġpays": 1040,
      "Ġab": 1041,
      "ĠEnsuite": 1042,
      "Ġver": 1043,
      "etit": 1044,
      "Ġ20": 1045,
      "Ġprincip": 1046,
      "bil": 1047,
      "Ġcin": 1048,
      "Ġcuis": 1049,
      "ĠlumiÃ¨re": 1050,
      "tÃ©rie": 1051,
      "act": 1052,
      "ait": 1053,
      "Ġro": 1054,
      "Ã¨ne": 1055,
      "Ġtous": 1056,
      "ica": 1057,
      "pec": 1058,
      "Ġfeu": 1059,
      "alis": 1060,
      "ruits": 1061,
      "venir": 1062,
      "rez": 1063,
      "tal": 1064,
      "RÃ©sume": 1065,
      "Ġsuivante": 1066,
      "Ġnotre": 1067,
      "tenir": 1068,
      "Ġ[": 1069,
      "Ġlon": 1070,
      "Ġcap": 1071,
      "ain": 1072,
      "Ġphot": 1073,
      "Ġinter": 1074,
      "ieux": 1075,
      "ĠdÃ©velopp": 1076,
      "Ġprop": 1077,
      "be": 1078,
      "arte": 1079,
      "oign": 1080,
      "ĠrÃ©duire": 1081,
      "huile": 1082,
      "pÃ©ri": 1083,
      "Ġgr": 1084,
      "Ġoff": 1085,
      "cep": 1086,
      "Ġhu": 1087,
      "Ã¨rement": 1088,
      "Ġst": 1089,
      "Ġ9": 1090,
      "chÃ©": 1091,
      "ĠpÃ¢tes": 1092,
      "Ġparag": 1093,
      "ticle": 1094,
      "ication": 1095,
      "ĠamÃ©lio": 1096,
      "ĠÃ©lÃ©": 1097,
      "amour": 1098,
      "Ġbas": 1099,
      "ĠjournÃ©e": 1100,
      "lade": 1101,
      "Ġbr": 1102,
      "Ġ15": 1103,
      "ĠdÃ©p": 1104,
      "hÃ©": 1105,
      "Ġid": 1106,
      "onte": 1107,
      "Ġ18": 1108,
      "Ġlait": 1109,
      "Â°": 1110,
      "Ã¹": 1111,
      "itu": 1112,
      "antÃ©": 1113,
      "Ġelle": 1114,
      "ĠFaire": 1115,
      "ement": 1116,
      "Ġta": 1117,
      "Ġty": 1118,
      "ari": 1119,
      "ni": 1120,
      "Ġrecher": 1121,
      "erci": 1122,
      "teau": 1123,
      "Ġcuire": 1124,
      "Ġpoivre": 1125,
      "ĠthÃ©or": 1126,
      "Ġsoi": 1127,
      "isse": 1128,
      "Ġga": 1129,
      "Ġrom": 1130,
      "Ġcuill": 1131,
      "Ġtravers": 1132,
      "ag": 1133,
      "entraÃ®": 1134,
      "Ġpopu": 1135,
      "Ġparagraphe": 1136,
      "tifs": 1137,
      "lation": 1138,
      "ĠÃ©p": 1139,
      "Ġder": 1140,
      "elles": 1141,
      "ĠplanÃ¨": 1142,
      "art": 1143,
      "romage": 1144,
      ".\"": 1145,
      "ĠmaniÃ¨re": 1146,
      "Ã©nergie": 1147,
      "ĠRÃ©": 1148,
      "ore": 1149,
      "umÃ©": 1150,
      "chauff": 1151,
      "ĠFrance": 1152,
      "Ġcommun": 1153,
      "Ġtomates": 1154,
      "Ã©rif": 1155,
      "Ġass": 1156,
      "Ġtex": 1157,
      "Ġcr": 1158,
      "Ġsyst": 1159,
      "ĠnÃ©cess": 1160,
      "Ġphysique": 1161,
      "ign": 1162,
      "aut": 1163,
      "teurs": 1164,
      "ĠAjouter": 1165,
      "prÃ¨s": 1166,
      "Ġtrois": 1167,
      "ĠdÃ©ta": 1168,
      "Ġmod": 1169,
      "Ã©lÃ©": 1170,
      "iti": 1171,
      "vez": 1172,
      "ĠdiffÃ©rents": 1173,
      "illi": 1174,
      "Ġces": 1175,
      "ĠsantÃ©": 1176,
      "oici": 1177,
      "Ġmoy": 1178,
      "ĠdiffÃ©rentes": 1179,
      "ves": 1180,
      "Ġvers": 1181,
      "ĠÃ©n": 1182,
      "Il": 1183,
      "oin": 1184,
      "Ġdo": 1185,
      "tÃ©s": 1186,
      "Ġlivre": 1187,
      "Ġgrand": 1188,
      "olive": 1189,
      "Ã¨mes": 1190,
      "quer": 1191,
      "tein": 1192,
      "Ġhistoire": 1193,
      "rac": 1194,
      "ĠoÃ¹": 1195,
      "Ġcal": 1196,
      "Ġcommence": 1197,
      "ĠamÃ©liorer": 1198,
      "ĠdÃ©lic": 1199,
      "Ġsci": 1200,
      "Ġperm": 1201,
      "prise": 1202,
      "Ġw": 1203,
      "iles": 1204,
      "bu": 1205,
      "lement": 1206,
      "Ġcinq": 1207,
      "Ġsous": 1208,
      "osy": 1209,
      "rendre": 1210,
      "Ġsans": 1211,
      "ĠcafÃ©": 1212,
      "Ġsignif": 1213,
      "volution": 1214,
      "Ġali": 1215,
      "ix": 1216,
      "Ġconn": 1217,
      "Pro": 1218,
      "oulet": 1219,
      "Ġmet": 1220,
      "Ġfond": 1221,
      "ettes": 1222,
      "Ã©rie": 1223,
      "ĠrÃ©soudre": 1224,
      "Ġprofes": 1225,
      "Ġmou": 1226,
      "lex": 1227,
      "Ġvos": 1228,
      "Ġcuisine": 1229,
      "Ġroman": 1230,
      "Ġpri": 1231,
      "Ġfruits": 1232,
      "Ġjou": 1233,
      "Ġbase": 1234,
      "ĠmÃ©thode": 1235,
      "Ġk": 1236,
      "Ġvo": 1237,
      "environnement": 1238,
      "vres": 1239,
      "pÃ©ci": 1240,
      "Ġvin": 1241,
      "ologie": 1242,
      "Ġpra": 1243,
      "lace": 1244,
      "ĠvÃ©gÃ©t": 1245,
      "Ġche": 1246,
      "bilitÃ©": 1247,
      "Ġimportant": 1248,
      "Ġsimp": 1249,
      "Ġplat": 1250,
      "ĠsociÃ©tÃ©": 1251,
      "Ġ100": 1252,
      "Ġsoupe": 1253,
      "ĠgÃ©nÃ©ra": 1254,
      "Ġto": 1255,
      "ĠDans": 1256,
      "Ġrecomm": 1257,
      "ita": 1258,
      "pond": 1259,
      "Ġanim": 1260,
      "leurs": 1261,
      "Ġfrais": 1262,
      "Ġdura": 1263,
      "Ġsoit": 1264,
      "ĠprÃ©sent": 1265,
      "Ġleurs": 1266,
      "lig": 1267,
      "Ġform": 1268,
      "arien": 1269,
      "Ġbon": 1270,
      "mentation": 1271,
      "ĠtÃ¢": 1272,
      "sionne": 1273,
      "ob": 1274,
      "Ġfromage": 1275,
      "Ġinclu": 1276,
      "mm": 1277,
      "Ġchau": 1278,
      "Ġforme": 1279,
      "ĠexpÃ©ri": 1280,
      "Ãªle": 1281,
      "formations": 1282,
      "ĠspÃ©ci": 1283,
      "inc": 1284,
      "ĠvÃ©gÃ©tarien": 1285,
      "ĠMar": 1286,
      "ĠrÃ©guliÃ¨rement": 1287,
      "ĠactivitÃ©": 1288,
      "Ġmondi": 1289,
      "ĠcÃ©lÃ¨bre": 1290,
      "mble": 1291,
      "vis": 1292,
      "Ġemp": 1293,
      "ĠSa": 1294,
      "Propose": 1295,
      "Ġ200": 1296,
      "bli": 1297,
      "Ġrecherche": 1298,
      "ĠthÃ©orie": 1299,
      "voir": 1300,
      "Ġprofessionne": 1301,
      "Ġquestion": 1302,
      "ĠDe": 1303,
      "cture": 1304,
      "Ġfam": 1305,
      "ient": 1306,
      "ĠthÃ¨me": 1307,
      "insi": 1308,
      "Ġtes": 1309,
      "Ġtarte": 1310,
      "Ġfil": 1311,
      "Ġtelles": 1312,
      "vous": 1313,
      "jeun": 1314,
      "Ġville": 1315,
      "resse": 1316,
      "ass": 1317,
      "Ã´le": 1318,
      "andis": 1319,
      "ca": 1320,
      "tures": 1321,
      "els": 1322,
      "Ġfait": 1323,
      "Ãªt": 1324,
      "Ġmain": 1325,
      "ĠsystÃ¨me": 1326,
      "iff": 1327,
      "aiss": 1328,
      "Ġacc": 1329,
      "zz": 1330,
      "ist": 1331,
      "pport": 1332,
      "Ġmeille": 1333,
      "Ã¢teau": 1334,
      "Ġment": 1335,
      "Ġenf": 1336,
      "ĠpoÃªle": 1337,
      "Ġquelques": 1338,
      "jeuner": 1339,
      "cri": 1340,
      "Ġ19": 1341,
      "bert": 1342,
      "ail": 1343,
      "gnes": 1344,
      "Ġprom": 1345,
      "Ġindi": 1346,
      "sions": 1347,
      "ss": 1348,
      "itÃ©s": 1349,
      "Ġcarac": 1350,
      "ĠÃĥ": 1351,
      "Ġpartir": 1352,
      "mis": 1353,
      "Ã®ner": 1354,
      "ĠtempÃ©ra": 1355,
      "orte": 1356,
      "Ġnoir": 1357,
      "ĠingrÃ©dients": 1358,
      "Ġclas": 1359,
      "Ġprog": 1360,
      "Ġref": 1361,
      "ĠcÃ´": 1362,
      "Ġainsi": 1363,
      "Ġtexte": 1364,
      "Ġtandis": 1365,
      "versitÃ©": 1366,
      "ression": 1367,
      "Ġtradi": 1368,
      "ule": 1369,
      "Ġcit": 1370,
      "op": 1371,
      "ĠpiÃ¨": 1372,
      "ug": 1373,
      "Ã¯": 1374,
      "Ġbeau": 1375,
      "Ġconse": 1376,
      "Ġti": 1377,
      "Ġ30": 1378,
      "Ġcarb": 1379,
      "ĠmÃ©d": 1380,
      "Ġchans": 1381,
      "Ġcer": 1382,
      "Ġtrouver": 1383,
      "port": 1384,
      "laires": 1385,
      "Ġcompren": 1386,
      "illÃ©": 1387,
      "Ġins": 1388,
      "Ġculture": 1389,
      "Ġple": 1390,
      "Ġ12": 1391,
      "Je": 1392,
      "fa": 1393,
      "Ġcourses": 1394,
      "ĠUn": 1395,
      "oix": 1396,
      "Ġ+": 1397,
      "Ġcontri": 1398,
      "Ġcapa": 1399,
      "Ġorgan": 1400,
      "ĠDÃ©": 1401,
      "ĠÃ©conom": 1402,
      "onde": 1403,
      "Ġinformations": 1404,
      "Ãªme": 1405,
      "ĠÃ©lec": 1406,
      "ĠgÃ©": 1407,
      "ĠÃ©vÃ©": 1408,
      "ĠplanÃ¨te": 1409,
      "tic": 1410,
      "vo": 1411,
      "Ġtour": 1412,
      "Ġtri": 1413,
      "ions": 1414,
      "Voici": 1415,
      "Ġblan": 1416,
      "Ġcomb": 1417,
      "Ġpe": 1418,
      "ĠrÃ©g": 1419,
      "Ġremp": 1420,
      "ay": 1421,
      "cont": 1422,
      "Ġtran": 1423,
      "Com": 1424,
      "Ġlors": 1425,
      "Ġjour": 1426,
      "ress": 1427,
      "Ġessenti": 1428,
      "Ġcan": 1429,
      "semble": 1430,
      "Ġgrande": 1431,
      "ha": 1432,
      "ĠtÃ©lÃ©": 1433,
      "Ġpeuvent": 1434,
      "ĠÃ©quili": 1435,
      "Ġstres": 1436,
      "ĠEnfin": 1437,
      "Ġstress": 1438,
      "ĠUne": 1439,
      "ĠcaractÃ©": 1440,
      "out": 1441,
      "pace": 1442,
      "ĠgÃ©nÃ©": 1443,
      "Ġsc": 1444,
      "Ġmer": 1445,
      "Ġha": 1446,
      "exp": 1447,
      "Ġcas": 1448,
      "ĠrÃ©sumÃ©": 1449,
      "Ġmen": 1450,
      "pare": 1451,
      "ĠTerre": 1452,
      "Ġsauce": 1453,
      "ĠpoÃ¨me": 1454,
      "..": 1455,
      "Ġsour": 1456,
      "Ġprendre": 1457,
      "structions": 1458,
      "Ġeffets": 1459,
      "Ġpermet": 1460,
      "Ġnos": 1461,
      "xy": 1462,
      "ĠvÃ©rif": 1463,
      "ĠintÃ©": 1464,
      "ĠfaÃ§": 1465,
      "Ġpass": 1466,
      "ĠK": 1467,
      "ĠvÃ©": 1468,
      "mag": 1469,
      "ps": 1470,
      "Ġ25": 1471,
      "ĠcuillÃ¨re": 1472,
      "Ġx": 1473,
      "Ġmat": 1474,
      "Ġplantes": 1475,
      "tives": 1476,
      "dro": 1477,
      "ĠY": 1478,
      "Ġdem": 1479,
      "iez": 1480,
      "Ġmoins": 1481,
      "ĠmÃ©langer": 1482,
      "Ch": 1483,
      "jour": 1484,
      "jec": 1485,
      "rop": 1486,
      "Ġbol": 1487,
      "ĠcompÃ©": 1488,
      "ables": 1489,
      "fi": 1490,
      "ipe": 1491,
      "ĠLais": 1492,
      "ock": 1493,
      "aur": 1494,
      "Une": 1495,
      "ĠactivitÃ©s": 1496,
      "crip": 1497,
      "pÃ¨": 1498,
      "citÃ©": 1499,
      "icie": 1500,
      "acc": 1501,
      "ateur": 1502,
      "ĠÃ©lÃ©ments": 1503,
      "Ġpoulet": 1504,
      "Ġmonta": 1505,
      "tences": 1506,
      "Ġrecommand": 1507,
      "Ġwe": 1508,
      "llig": 1509,
      "ĠSer": 1510,
      "nent": 1511,
      "ats": 1512,
      "ĠPrÃ©pa": 1513,
      "âĢ": 1514,
      "ĠrÃ©c": 1515,
      "Ġconcent": 1516,
      "oignon": 1517,
      "rodu": 1518,
      "Ġpersonnes": 1519,
      "Ġprem": 1520,
      "Ġlong": 1521,
      "ĠrÃ©f": 1522,
      "bes": 1523,
      "Ġsol": 1524,
      "Ġhab": 1525,
      "Ġexplo": 1526,
      "Ġlan": 1527,
      "Ġgu": 1528,
      "Ġeffica": 1529,
      "Ġsouv": 1530,
      "lbert": 1531,
      "viron": 1532,
      "Ġtasse": 1533,
      "ĠRe": 1534,
      "Ġdern": 1535,
      "ĠmÃ©ditation": 1536,
      "Ġva": 1537,
      "Ġann": 1538,
      "Ġvari": 1539,
      "tÃ©e": 1540,
      "bi": 1541,
      "ieu": 1542,
      "ĠgÃ¢teau": 1543,
      "gues": 1544,
      "ĠcaractÃ©ris": 1545,
      "Ġsemaine": 1546,
      "ouvoir": 1547,
      "issant": 1548,
      "oti": 1549,
      "rait": 1550,
      "Ġtraditionne": 1551,
      "Ġbes": 1552,
      "Ġconcep": 1553,
      "Ġcourt": 1554,
      "Ġpeti": 1555,
      "ĠrelativitÃ©": 1556,
      "ĠmÃ©di": 1557,
      "Ġcapit": 1558,
      "ĠcompÃ©tences": 1559,
      "Ġrac": 1560,
      "IngrÃ©dients": 1561,
      "co": 1562,
      "aleur": 1563,
      "Ġpoli": 1564,
      "Ġmi": 1565,
      "Ġress": 1566,
      "Ġfourn": 1567,
      "ĠdÃ©s": 1568,
      "Ġ180": 1569,
      "Ġlui": 1570,
      "Ġaff": 1571,
      "isson": 1572,
      "fini": 1573,
      "rit": 1574,
      "Ġenvironnement": 1575,
      "Ġrapi": 1576,
      "pon": 1577,
      "ĠsÃ©rie": 1578,
      "tation": 1579,
      "Ġtypes": 1580,
      "ok": 1581,
      "rent": 1582,
      "ograph": 1583,
      "Ġdouce": 1584,
      "tÃ©rieur": 1585,
      "Ġpub": 1586,
      "Ġterre": 1587,
      "ĠdÃ©g": 1588,
      "ĠrÃ©sul": 1589,
      "ĠtÃ¢ches": 1590,
      "ane": 1591,
      "ouvre": 1592,
      "Ġavoir": 1593,
      "mon": 1594,
      "rant": 1595,
      "ĠUtilis": 1596,
      "ologiques": 1597,
      "Ġgaz": 1598,
      "Ġgar": 1599,
      "Ġsec": 1600,
      "Ġimpact": 1601,
      "ĠÃ©t": 1602,
      "ieuse": 1603,
      "Ġsalade": 1604,
      "quoi": 1605,
      "mar": 1606,
      "Ġdonne": 1607,
      "tiss": 1608,
      "ĠfranÃ§aise": 1609,
      "Ġchanson": 1610,
      "Ġquoti": 1611,
      "Ġciel": 1612,
      "Ġno": 1613,
      "zza": 1614,
      "titu": 1615,
      "quant": 1616,
      "Ġfer": 1617,
      "Ãªtre": 1618,
      "Ġactu": 1619,
      "Ġrencont": 1620,
      "issez": 1621,
      "Ġexplique": 1622,
      "Ġsitu": 1623,
      "Ġrouge": 1624,
      "ĠdÃ©veloppement": 1625,
      "rir": 1626,
      "vor": 1627,
      "ĠQu": 1628,
      "isation": 1629,
      "iller": 1630,
      "ras": 1631,
      "autres": 1632,
      "ĠPetit": 1633,
      "ram": 1634,
      "Ġlev": 1635,
      "instein": 1636,
      "cation": 1637,
      "lage": 1638,
      "Ġchamp": 1639,
      "Ġfamille": 1640,
      "Ġconstru": 1641,
      "ĠprÃ©paration": 1642,
      "ĠfraÃ®": 1643,
      "Ġchien": 1644,
      "Ġparf": 1645,
      "sa": 1646,
      "Ġlit": 1647,
      "Ġligne": 1648,
      "Ġarticle": 1649,
      "Ġproduits": 1650,
      "Ġquotidi": 1651,
      "Ġcri": 1652,
      "ros": 1653,
      "ĠPour": 1654,
      "ĠprotÃ©": 1655,
      "Ġvoiture": 1656,
      "ino": 1657,
      "Ġnon": 1658,
      "oser": 1659,
      "ĠmÃ©tÃ©": 1660,
      "Ġcontribu": 1661,
      "ud": 1662,
      "Ġsal": 1663,
      "erne": 1664,
      "Ġap": 1665,
      "Ġchim": 1666,
      "Ġcompte": 1667,
      "odi": 1668,
      "oter": 1669,
      "Ġblanc": 1670,
      "ry": 1671,
      "Ġaut": 1672,
      "Ġservi": 1673,
      "Ġrestaur": 1674,
      "matiques": 1675,
      "Ġnouvelle": 1676,
      "ĠÃ©v": 1677,
      "lication": 1678,
      "Ġproduit": 1679,
      "illon": 1680,
      "ĠSe": 1681,
      "Ã»t": 1682,
      "Ġhuma": 1683,
      "\",": 1684,
      "ieurs": 1685,
      "Ġefficace": 1686,
      "air": 1687,
      "itiÃ©": 1688,
      "ĠrÃ©sulta": 1689,
      "oth": 1690,
      "Ġils": 1691,
      "Ġtomate": 1692,
      "ĠAss": 1693,
      "Ġsolaire": 1694,
      "vation": 1695,
      "tien": 1696,
      "lection": 1697,
      "En": 1698,
      "Ġriz": 1699,
      "ĠentraÃ®": 1700,
      "Ġscientif": 1701,
      "yp": 1702,
      "Ġpol": 1703,
      "leur": 1704,
      "ĠprÃ©c": 1705,
      "Ġthe": 1706,
      "ĠCela": 1707,
      "ora": 1708,
      "Ġon": 1709,
      "int": 1710,
      "ĠidÃ©es": 1711,
      "Ġdoma": 1712,
      "Ġlettre": 1713,
      "Ġsomme": 1714,
      "ĠAn": 1715,
      "temp": 1716,
      "Ġinf": 1717,
      "ĠAr": 1718,
      "ĠJour": 1719,
      "Ġsuivants": 1720,
      "import": 1721,
      "Ã©lan": 1722,
      "roid": 1723,
      "Ġsuivre": 1724,
      "Ãī": 1725,
      "blÃ¨me": 1726,
      "\"\"": 1727,
      "Ġord": 1728,
      "Ġdestin": 1729,
      "Ġenc": 1730,
      "Ġrapide": 1731,
      "Ġsimple": 1732,
      "19": 1733,
      "rec": 1734,
      "Ġmom": 1735,
      "Ġmilli": 1736,
      "osyst": 1737,
      "Ġchaud": 1738,
      "Ġmouve": 1739,
      "ussi": 1740,
      "ible": 1741,
      "mment": 1742,
      "utilisation": 1743,
      "Ġrais": 1744,
      "ide": 1745,
      "ĠqualitÃ©": 1746,
      "rations": 1747,
      "ow": 1748,
      "Ġserre": 1749,
      "dique": 1750,
      "Ġcitron": 1751,
      "Ġpetit": 1752,
      "Ġconseils": 1753,
      "ĠproblÃ¨me": 1754,
      "Ġpain": 1755,
      "Ġmont": 1756,
      "aliser": 1757,
      "Ġpap": 1758,
      "dus": 1759,
      "Ġloc": 1760,
      "Ġlog": 1761,
      "reinte": 1762,
      "ĠÃ©quilib": 1763,
      "Ġmaj": 1764,
      "Ġlivres": 1765,
      "Ġmettant": 1766,
      "oxy": 1767,
      "ĠlÃ©g": 1768,
      "Ã¨se": 1769,
      "ĠMa": 1770,
      "gre": 1771,
      "Ġdire": 1772,
      "ratique": 1773,
      "urer": 1774,
      "ĠNe": 1775,
      "Ġcommen": 1776,
      "ĠnÃ©cessaires": 1777,
      "Ġplace": 1778,
      "importance": 1779,
      "Rac": 1780,
      "Ġcl": 1781,
      "Ġchois": 1782,
      "Ġhis": 1783,
      "Ġpersonnages": 1784,
      "Ġmoyen": 1785,
      "Ġmondiale": 1786,
      "mÃ©": 1787,
      "Ġlevure": 1788,
      "Ġgla": 1789,
      "anc": 1790,
      "uss": 1791,
      "sition": 1792,
      "od": 1793,
      "Ġtechnologie": 1794,
      "icielle": 1795,
      "ive": 1796,
      "Ġrevenir": 1797,
      "Ã©quation": 1798,
      "Ġdev": 1799,
      "Ġplusieurs": 1800,
      "Ġobtenir": 1801,
      "lligence": 1802,
      "ĠdÃ©gus": 1803,
      "Ġconten": 1804,
      "pagn": 1805,
      "ame": 1806,
      "lant": 1807,
      "tier": 1808,
      "omÃ¨": 1809,
      "ĠÃ©tape": 1810,
      "Raconte": 1811,
      "ĠaprÃ¨s": 1812,
      "Ġamis": 1813,
      "ĠCha": 1814,
      "jets": 1815,
      "ĠmÃªme": 1816,
      "Ġartis": 1817,
      "ĠexpÃ©rience": 1818,
      "Ġjard": 1819,
      "tern": 1820,
      "Ã©cur": 1821,
      "Ġseu": 1822,
      "Ġplage": 1823,
      "iffel": 1824,
      "Ġetc": 1825,
      "ĠEiffel": 1826,
      "ĠAjoutez": 1827,
      "Ġcarbone": 1828,
      "Ġcel": 1829,
      "ĠtrÃ©s": 1830,
      "Ġchat": 1831,
      "Ġendro": 1832,
      "tÃ©ra": 1833,
      "ottes": 1834,
      "dentif": 1835,
      "Ġsens": 1836,
      "tement": 1837,
      "ĠÃ©tu": 1838,
      "Ġpeux": 1839,
      "Ġprincipaux": 1840,
      "Ġajouter": 1841,
      "eff": 1842,
      "osph": 1843,
      "Ġfavor": 1844,
      "ologique": 1845,
      "Ġcapitale": 1846,
      "jours": 1847,
      "omp": 1848,
      "ith": 1849,
      "Ġcontre": 1850,
      "ĠDes": 1851,
      "inoa": 1852,
      "article": 1853,
      "Ġsociaux": 1854,
      "ignons": 1855,
      "tie": 1856,
      "all": 1857,
      "Ġjam": 1858,
      "mesan": 1859,
      "versaire": 1860,
      "Ġvol": 1861,
      "Ġparta": 1862,
      "Ġconsomm": 1863,
      "pÃ¨ces": 1864,
      "Ã©p": 1865,
      "ĠEinstein": 1866,
      "Ġsite": 1867,
      "espace": 1868,
      "Ġmag": 1869,
      "ĠFa": 1870,
      "Ġrem": 1871,
      "onnÃ©e": 1872,
      "gent": 1873,
      "Ġret": 1874,
      "Ġtoujours": 1875,
      "ĠfaÃ§on": 1876,
      "Ġcourte": 1877,
      "ĠcÅĵ": 1878,
      "rÃ©es": 1879,
      "ĠtrÃ¨s": 1880,
      "ĠvÃ©gÃ©ta": 1881,
      "ĠpiÃ¨ce": 1882,
      "pons": 1883,
      "Ġbois": 1884,
      "uro": 1885,
      "aly": 1886,
      "Ġcroiss": 1887,
      "ton": 1888,
      "ĠsÃ©cur": 1889,
      "Ġselon": 1890,
      "ĠmathÃ©": 1891,
      "isser": 1892,
      "Ġdescrip": 1893,
      "Ġrenfor": 1894,
      "impact": 1895,
      "fique": 1896,
      "ĠdÃ®ner": 1897,
      "ĠrÃ©alis": 1898,
      "Ġfeuilles": 1899,
      "Ġlar": 1900,
      "amitiÃ©": 1901,
      "Ġsoient": 1902,
      "Ġincluant": 1903,
      "orter": 1904,
      "ĠInc": 1905,
      "niversaire": 1906,
      "Ã¨ve": 1907,
      "Ġparc": 1908,
      "Ġressour": 1909,
      "Ġfi": 1910,
      "Ġcompos": 1911,
      "Ġweb": 1912,
      "Ġtoi": 1913,
      "ĠPers": 1914,
      "Ġhau": 1915,
      "ĠOr": 1916,
      "Ġnombreuses": 1917,
      "riture": 1918,
      "tent": 1919,
      "Ġans": 1920,
      "Ġsor": 1921,
      "Ġban": 1922,
      "ĠCette": 1923,
      "Indique": 1924,
      "Ġterme": 1925,
      "ĠbeautÃ©": 1926,
      "Ġfaut": 1927,
      "Ġpoiv": 1928,
      "tÃ©g": 1929,
      "Ġrepas": 1930,
      "Ġmoderne": 1931,
      "finition": 1932,
      "ĠpÃ©ri": 1933,
      "piration": 1934,
      "lus": 1935,
      "table": 1936,
      "Ġmoule": 1937,
      "Ġpublic": 1938,
      "gÃ©": 1939,
      "ĠsiÃ¨": 1940,
      "Ġcours": 1941,
      "ose": 1942,
      "lais": 1943,
      "ĠcrÃ©a": 1944,
      "Ġnuages": 1945,
      "die": 1946,
      "nÃ©": 1947,
      "Ġquinoa": 1948,
      "ĠCes": 1949,
      "ues": 1950,
      "Ġdro": 1951,
      "ots": 1952,
      "ager": 1953,
      "mosph": 1954,
      "ĠfÃªte": 1955,
      "ĠrÃ¢": 1956,
      "Ġnouvelles": 1957,
      "ĠreprÃ©s": 1958,
      "ĠÃ©vÃ©nement": 1959,
      "odes": 1960,
      "isme": 1961,
      "Ġvac": 1962,
      "Ġvites": 1963,
      "ici": 1964,
      "ĠdÃ©f": 1965,
      "Ġfac": 1966,
      "ĠocÃ©": 1967,
      "Ġartif": 1968,
      "ĠÃ©cosyst": 1969,
      "rou": 1970,
      "vÃ©e": 1971,
      "Ġmor": 1972,
      "odiversitÃ©": 1973,
      "ince": 1974,
      "Ġjardin": 1975,
      "hi": 1976,
      "ome": 1977,
      "Ġtoutes": 1978,
      "aide": 1979,
      "Ġorig": 1980,
      "Ġmij": 1981,
      "Ġimm": 1982,
      "ĠforÃªt": 1983,
      "ĠtempÃ©rature": 1984,
      "Ġentreprise": 1985,
      "Ġpremi": 1986,
      "ĠbiodiversitÃ©": 1987,
      "Dans": 1988,
      "Ġent": 1989,
      "ĠmÃ©mo": 1990,
      "ĠvÃ©lo": 1991,
      "oph": 1992,
      "server": 1993,
      "Ġchampignons": 1994,
      "iv": 1995,
      "Ġcur": 1996,
      "chet": 1997,
      "ĠPr": 1998,
      "Ġnombreux": 1999,
      "itaire": 2000,
      "ĠdÃ©m": 2001,
      "olÃ©": 2002,
      "Ġsujet": 2003,
      "oga": 2004,
      "ponds": 2005,
      "Identif": 2006,
      "ressi": 2007,
      "Ġjours": 2008,
      "ĠphÃ©n": 2009,
      "Ġpein": 2010,
      "enir": 2011,
      "anger": 2012,
      "isant": 2013,
      "ĠÃ©to": 2014,
      "Ġnouveau": 2015,
      "Ġrefroid": 2016,
      "Ġhistor": 2017,
      "ĠtrÃ©sor": 2018,
      "ds": 2019,
      "iner": 2020,
      "Ġcontr": 2021,
      "ĠconsÃ©qu": 2022,
      "Ġaid": 2023,
      "Ġensemble": 2024,
      "Ġcher": 2025,
      "Ġcorps": 2026,
      "ĠintÃ©ress": 2027,
      "Ġparmesan": 2028,
      "ducation": 2029,
      "Ġhumaine": 2030,
      "ĠcaractÃ©ristiques": 2031,
      "nth": 2032,
      "oles": 2033,
      "Ġbo": 2034,
      "Ġforce": 2035,
      "ĠespÃ¨ces": 2036,
      "Ġphrases": 2037,
      "intelligence": 2038,
      "Ġchimique": 2039,
      "Ġvan": 2040,
      "ĠÃ©mis": 2041,
      "Ġemb": 2042,
      "ĠPrÃ©chauff": 2043,
      "Ġnour": 2044,
      "Ġautres": 2045,
      "aigre": 2046,
      "Ġrespec": 2047,
      "ĠfraÃ®che": 2048,
      "Ġvacances": 2049,
      "rire": 2050,
      "tir": 2051,
      "Ġeffet": 2052,
      "ĠÃ©quation": 2053,
      "Ġposte": 2054,
      "Ġartificielle": 2055,
      "yth": 2056,
      "Ã©m": 2057,
      "aient": 2058,
      "ĠÃītape": 2059,
      "ĠÃ¢": 2060,
      "Ġcomplex": 2061,
      "sole": 2062,
      "yc": 2063,
      "ĠnÃ©g": 2064,
      "Ġcomprenant": 2065,
      "ĠÃ©lectri": 2066,
      "Ġhabit": 2067,
      "ĠlittÃ©ra": 2068,
      "Ġmijoter": 2069,
      "oure": 2070,
      "nelle": 2071,
      "ĠdÃ©b": 2072,
      "Ġphoto": 2073,
      "Ġsouvent": 2074,
      "Albert": 2075,
      "dent": 2076,
      "Ġcondi": 2077,
      "ĠdÃ©finition": 2078,
      "ĠAl": 2079,
      "Ġdra": 2080,
      "ension": 2081,
      "entraÃ®nement": 2082,
      "Ġanimaux": 2083,
      "Ġconsommation": 2084,
      "Ġlaisser": 2085,
      "Ġfut": 2086,
      "Ã¨le": 2087,
      "ĠrÃ©volution": 2088,
      "Ġgrav": 2089,
      "Ġaliment": 2090,
      "Imag": 2091,
      "da": 2092,
      "ouverte": 2093,
      "Ġgestion": 2094,
      "lure": 2095,
      "quel": 2096,
      "__": 2097,
      "ĠMÃ©lan": 2098,
      "ĠrÃ¢pÃ©": 2099,
      "ĠÃ©mo": 2100,
      "Ġbat": 2101,
      "Ġutilise": 2102,
      "Identifie": 2103,
      "Ã¢tre": 2104,
      "ann": 2105,
      "ĠEt": 2106,
      "Ġcouleurs": 2107,
      "exerci": 2108,
      "ographie": 2109,
      "Con": 2110,
      "Ġreconn": 2111,
      "cul": 2112,
      "Ġclassique": 2113,
      "ladi": 2114,
      "dio": 2115,
      "Ġcompris": 2116,
      "Peux": 2117,
      "erbes": 2118,
      "Ġnive": 2119,
      "Ġhe": 2120,
      "Ġobjec": 2121,
      "av": 2122,
      "anci": 2123,
      "Ġsais": 2124,
      "Ġtend": 2125,
      "phone": 2126,
      "abord": 2127,
      "Ġenfants": 2128,
      "ropri": 2129,
      "Ġop": 2130,
      "intÃ©rieur": 2131,
      "nements": 2132,
      "Ġreg": 2133,
      "Ġapprendre": 2134,
      "bertÃ©": 2135,
      "ĠnÃ©cessaire": 2136,
      "Ġrestaurant": 2137,
      "Ġcellu": 2138,
      "RÃ©ponds": 2139,
      "Ãªtements": 2140,
      "ĠÃītats": 2141,
      "heur": 2142,
      "up": 2143,
      "Ġcuisson": 2144,
      "Ġmouvement": 2145,
      "Ġvitesse": 2146,
      "nthÃ¨se": 2147,
      "ĠdonnÃ©": 2148,
      "ĠIngrÃ©dients": 2149,
      "aissance": 2150,
      "ĠÃ©missions": 2151,
      "ense": 2152,
      "ards": 2153,
      "ara": 2154,
      "Ġpne": 2155,
      "Ġsuc": 2156,
      "Ġ50": 2157,
      "Ġavantages": 2158,
      "Ġprincipal": 2159,
      "gh": 2160,
      "Ġdont": 2161,
      "Ġquad": 2162,
      "ouvrir": 2163,
      "Ġsty": 2164,
      "GÃ©n": 2165,
      "Ġpot": 2166,
      "Ġchauff": 2167,
      "Ġof": 2168,
      "ĠVers": 2169,
      "Ġappropri": 2170,
      "lications": 2171,
      "Ġexemples": 2172,
      "Ġlieu": 2173,
      "Ġprix": 2174,
      "ĠÃ©cla": 2175,
      "Ã©rables": 2176,
      "ĠmÃ©tÃ©or": 2177,
      "gmentation": 2178,
      "ombre": 2179,
      "cel": 2180,
      "ĠPro": 2181,
      "Ġfonctionnement": 2182,
      "Ġadap": 2183,
      "Ġvinaigre": 2184,
      "Ã©vÃ©": 2185,
      "ony": 2186,
      "forme": 2187,
      "Ġmentale": 2188,
      "Ġspa": 2189,
      "Ġjeune": 2190,
      "ĠPrÃ©paration": 2191,
      "Ġmorce": 2192,
      "Ġcontin": 2193,
      "ĠAprÃ¨s": 2194,
      "ĠprÃ©fÃ©": 2195,
      "apon": 2196,
      "bo": 2197,
      "ke": 2198,
      "lier": 2199,
      "Ãªmes": 2200,
      "An": 2201,
      "onc": 2202,
      "rale": 2203,
      "Ġquan": 2204,
      "andonnÃ©e": 2205,
      "Ġtrouve": 2206,
      "ĠIls": 2207,
      "entreprise": 2208,
      "lÃ¨te": 2209,
      "Ġessentiel": 2210,
      "ĠrÃ©se": 2211,
      "Ġfaites": 2212,
      "Ġparticu": 2213,
      "ĠcapacitÃ©": 2214,
      "mosphÃ¨re": 2215,
      "mine": 2216,
      "Ġ0": 2217,
      "tac": 2218,
      "Ġrelax": 2219,
      "Ġlang": 2220,
      "etto": 2221,
      "ori": 2222,
      "ĠCu": 2223,
      "mail": 2224,
      "Ġpossi": 2225,
      "itali": 2226,
      "GÃ©nÃ¨re": 2227,
      "mma": 2228,
      "oupe": 2229,
      "Ġmoi": 2230,
      "Ġcasser": 2231,
      "ĠpremiÃ¨re": 2232,
      "ponse": 2233,
      "Ġendroit": 2234,
      "Ġrefroidir": 2235,
      "Ġquadratique": 2236,
      "Ġfleurs": 2237,
      "Ġlequel": 2238,
      "Ġinstructions": 2239,
      "Ġhar": 2240,
      "ĠÃ©quipe": 2241,
      "ĠsÃ©lection": 2242,
      "ĠrÃ©aliser": 2243,
      "Ġcamp": 2244,
      "Ġlim": 2245,
      "Ġanci": 2246,
      "Ġtranches": 2247,
      "Ġjamais": 2248,
      "ĠÃ©cosystÃ¨mes": 2249,
      "uer": 2250,
      "tiquer": 2251,
      "Ġuni": 2252,
      "Ġenviron": 2253,
      "Ġchoix": 2254,
      "Unis": 2255,
      "ĠQ": 2256,
      "ĠthÃ©Ã¢tre": 2257,
      "Ġphotosy": 2258,
      "Ġutiliser": 2259,
      "Ġrenouve": 2260,
      "oignons": 2261,
      "Ġstru": 2262,
      "Ġ150": 2263,
      "Ġbesoin": 2264,
      "Ã©ducation": 2265,
      "Ġair": 2266,
      "Ġmotiv": 2267,
      "Ġcourse": 2268,
      "Ġnombres": 2269,
      "Ġyoga": 2270,
      "ĠnÃ©ga": 2271,
      "gÃ¨ne": 2272,
      "riÃ¨re": 2273,
      "cip": 2274,
      "onnage": 2275,
      "Ġplats": 2276,
      "Ġsyn": 2277,
      "ĠcÃ©lÃ¨bres": 2278,
      "Ġpropre": 2279,
      "ĠgÃ©nÃ©ralement": 2280,
      "Ã©o": 2281,
      "Ġeu": 2282,
      "Ġprob": 2283,
      "sert": 2284,
      "Ġconfl": 2285,
      "Ġcroissance": 2286,
      "cris": 2287,
      "zon": 2288,
      "Ġpor": 2289,
      "nez": 2290,
      "Ġchac": 2291,
      "Ġpouvoir": 2292,
      "Ġcoucher": 2293,
      "ĠdiffÃ©rences": 2294,
      "Ġprofonde": 2295,
      "Ġoffre": 2296,
      "Ġpopulaire": 2297,
      "rend": 2298,
      "Ġmoment": 2299,
      "alyse": 2300,
      "Ġaider": 2301,
      "ĠÃ©ch": 2302,
      "Ġmode": 2303,
      "ectu": 2304,
      "ĠmÃ©langez": 2305,
      "ĠPrince": 2306,
      "Ġrapport": 2307,
      "Ġchangements": 2308,
      "Ġdernier": 2309,
      "lin": 2310,
      "Ġitali": 2311,
      "ĠÃ©vi": 2312,
      "Ġpizza": 2313,
      "Ġmaintenir": 2314,
      "ĠNew": 2315,
      "ĠcÅĵur": 2316,
      "ĠphotosynthÃ¨se": 2317,
      "der": 2318,
      "Ġmal": 2319,
      "diger": 2320,
      "ureux": 2321,
      "onner": 2322,
      "ranger": 2323,
      "Ġtradu": 2324,
      "Ġrespiration": 2325,
      "Ġjouer": 2326,
      "Ġbonheur": 2327,
      "estions": 2328,
      "Ġprofond": 2329,
      "Ġtransport": 2330,
      "Ġconcentration": 2331,
      "Ġpneu": 2332,
      "trie": 2333,
      "Ġmuscu": 2334,
      "pportun": 2335,
      "ĠFaites": 2336,
      "Ġmettre": 2337,
      "Ġquestions": 2338,
      "Ġpasse": 2339,
      "lie": 2340,
      "ĠdÃ©t": 2341,
      "mat": 2342,
      "Ġang": 2343,
      "Ġcouche": 2344,
      "Ġpertin": 2345,
      "Ġlut": 2346,
      "Ġgo": 2347,
      "Ġmontagne": 2348,
      "Ġscientifique": 2349,
      "ĠocÃ©ans": 2350,
      "ettoy": 2351,
      "Ġglu": 2352,
      "Ġprofessionnel": 2353,
      "ĠdÃ©guster": 2354,
      "Ġjeu": 2355,
      "ĠrÃ´le": 2356,
      "ĠSau": 2357,
      "vertis": 2358,
      "ĠdÃ©tail": 2359,
      "ĠprÃ©sentation": 2360,
      "Ġressources": 2361,
      "Ġniveau": 2362,
      "ĠVerser": 2363,
      "Ġsenti": 2364,
      "ĠrÃ©chauff": 2365,
      "vait": 2366,
      "Ã§u": 2367,
      "Imagine": 2368,
      ").": 2369,
      "avi": 2370,
      "Ġlire": 2371,
      "Ġris": 2372,
      "illÃ©e": 2373,
      "tention": 2374,
      "ĠcrÃ©ation": 2375,
      "Ġcommencez": 2376,
      "Ġsignifica": 2377,
      "Ġcombus": 2378,
      "Ġdemande": 2379,
      "Ġmorceaux": 2380,
      "Ġaussi": 2381,
      "Ġbouillon": 2382,
      "Ġcommunication": 2383,
      "Ġindivi": 2384,
      "ĠscÃ¨ne": 2385,
      "Ġconcept": 2386,
      "Ġpremiers": 2387,
      "roduction": 2388,
      "Ġlangage": 2389,
      "Ġcasserole": 2390,
      "Ġoignons": 2391,
      "Ġcoup": 2392,
      "ĠChaque": 2393,
      "ime": 2394,
      "Ġposi": 2395,
      "Ġlib": 2396,
      "ĠServir": 2397,
      "ĠconsÃ©quences": 2398,
      "rons": 2399,
      "eures": 2400,
      "ĠgÃ©rer": 2401,
      "jourd": 2402,
      "Ġdomaine": 2403,
      "emb": 2404,
      "pendant": 2405,
      "Ġfais": 2406,
      "Ġtechniques": 2407,
      "ĠsÃ©curitÃ©": 2408,
      "loi": 2409,
      "oci": 2410,
      "ĠX": 2411,
      "Ġand": 2412,
      "servation": 2413,
      "Ġdisc": 2414,
      "prit": 2415,
      "Ġorganiser": 2416,
      "ĠsiÃ¨cle": 2417,
      "ade": 2418,
      "Ġformer": 2419,
      "ĠthÃ¨mes": 2420,
      "Ġtrouv": 2421,
      "tractions": 2422,
      "Ġpleine": 2423,
      "Ecris": 2424,
      "ima": 2425,
      "orpo": 2426,
      "ĠdÃ©ch": 2427,
      "Ġprojet": 2428,
      "Ġviande": 2429,
      "Ġfonctionne": 2430,
      "ĠdÃ©licieuse": 2431,
      "titude": 2432,
      "Ġdonner": 2433,
      "Ġgramma": 2434,
      "Ġrenouvela": 2435,
      "cule": 2436,
      "atement": 2437,
      "ĠcuillÃ¨res": 2438,
      "tte": 2439,
      "oud": 2440,
      "aise": 2441,
      "ĠdiffÃ©rence": 2442,
      "angle": 2443,
      "Ġmesures": 2444,
      "Ġcerta": 2445,
      "),": 2446,
      "Ġpens": 2447,
      "Ġsus": 2448,
      "ĠEntra": 2449,
      "ĠLaisser": 2450,
      "ĠmÃ©moire": 2451,
      "Ġpollu": 2452,
      "Ġdescription": 2453,
      "no": 2454,
      "isÃ©rables": 2455,
      "Ġag": 2456,
      "ilic": 2457,
      "Ġprincipa": 2458,
      "onomie": 2459,
      "ĠtempÃ©ratures": 2460,
      "ĠEntraÃ®": 2461,
      "inateur": 2462,
      "ĠSel": 2463,
      "ĠRome": 2464,
      "Ġamour": 2465,
      "Ġscience": 2466,
      "Ġplein": 2467,
      "Ġactuelle": 2468,
      "Ġraison": 2469,
      "ali": 2470,
      "sus": 2471,
      "Ġherbes": 2472,
      "lÃ¨mes": 2473,
      "Ġroue": 2474,
      "Ġdoux": 2475,
      "Ġnuit": 2476,
      "ĠdÃ©licieux": 2477,
      "exercice": 2478,
      "vie": 2479,
      "Ġpoudre": 2480,
      "ĠÃħ": 2481,
      "Ġbl": 2482,
      "Ġvisiter": 2483,
      "Ġmusique": 2484,
      "Ġprogram": 2485,
      "omb": 2486,
      "Ġchaleur": 2487,
      "ĠMisÃ©rables": 2488,
      "Ã´t": 2489,
      "Ġservir": 2490,
      "ĠcrÃª": 2491,
      "Ġraconte": 2492,
      "Ġcommencer": 2493,
      "ĠmÃ©tÃ©orologiques": 2494,
      "--": 2495,
      "rÃ©h": 2496,
      "Ġ?\"": 2497,
      "Ġdurable": 2498,
      "ticles": 2499,
      "Ġdemand": 2500,
      "par": 2501,
      "Ãĥ": 2502,
      "Ġsta": 2503,
      "quÃ©": 2504,
      "Ġvid": 2505,
      "ĠannÃ©es": 2506,
      "tim": 2507,
      "ĠmÃ©ta": 2508,
      "are": 2509,
      "Ġcre": 2510,
      "Ġcitation": 2511,
      "ĠrÃ©diger": 2512,
      "Ġplas": 2513,
      "Ġdist": 2514,
      "ĠmathÃ©matique": 2515,
      "Ġorigin": 2516,
      "ĠproblÃ¨mes": 2517,
      "iÃ¨me": 2518,
      "inÃ©": 2519,
      "ĠrÃ©un": 2520,
      "tient": 2521,
      "ĠdÃ©co": 2522,
      "ĠreprÃ©sent": 2523,
      "tur": 2524,
      "toi": 2525,
      "ĠrÃ©pa": 2526,
      "ĠrÃ©ponse": 2527,
      "Ġsav": 2528,
      "position": 2529,
      "Ġlangue": 2530,
      "tÃ©ri": 2531,
      "Ġrendre": 2532,
      "Ġexerci": 2533,
      "Ġtoute": 2534,
      "ĠmÃ©thodes": 2535,
      "Ġmillions": 2536,
      "Ġcontenu": 2537,
      "ĠvÃªtements": 2538,
      "Ġint": 2539,
      "ĠrÃª": 2540,
      "ictor": 2541,
      "Ġcorrec": 2542,
      "Fais": 2543,
      "action": 2544,
      "vas": 2545,
      "Ġcy": 2546,
      "ĠlibertÃ©": 2547,
      "ĠGu": 2548,
      "uni": 2549,
      "arch": 2550,
      "orm": 2551,
      "ĠPa": 2552,
      "Ġplon": 2553,
      "ĠMon": 2554,
      "ĠcomprÃ©h": 2555,
      "ĠVer": 2556,
      "Ġrespons": 2557,
      "puis": 2558,
      "ĠvÃ©gÃ©tarienne": 2559,
      "ctivitÃ©": 2560,
      "Ġill": 2561,
      "ral": 2562,
      "Ġfra": 2563,
      "verse": 2564,
      "ĠvÃ©rifier": 2565,
      "Ġpeinture": 2566,
      "sons": 2567,
      "ÃĤ": 2568,
      "chant": 2569,
      "Quel": 2570,
      "ĠsoirÃ©e": 2571,
      "ĠcrÃ¨me": 2572,
      "ork": 2573,
      "Ġproch": 2574,
      "Ġrestreinte": 2575,
      "Ġchauffer": 2576,
      "lor": 2577,
      "Ġspec": 2578,
      "ĠmÃ¨": 2579,
      "onter": 2580,
      "ateurs": 2581,
      "ĠÃ©toiles": 2582,
      "tiÃ¨re": 2583,
      "Ġlasa": 2584,
      "Ġensole": 2585,
      "Ġbar": 2586,
      "ĠrÃ´": 2587,
      "Ġsub": 2588,
      "Ġcourage": 2589,
      "Ġami": 2590,
      "Ġcomprennent": 2591,
      "Ġhistorique": 2592,
      "gor": 2593,
      "oup": 2594,
      "Ġ17": 2595,
      "pagne": 2596,
      "ĠdurabilitÃ©": 2597,
      "ĠprotÃ©ger": 2598,
      "temps": 2599,
      "Ġensuite": 2600,
      "siques": 2601,
      "Ġtrop": 2602,
      "ĠÃ©viter": 2603,
      "ĠcontrÃ´le": 2604,
      "hum": 2605,
      "anes": 2606,
      "Ġcondu": 2607,
      "Ġcarottes": 2608,
      "isez": 2609,
      "tel": 2610,
      "Ġten": 2611,
      "aume": 2612,
      "Ġ11": 2613,
      "ĠrandonnÃ©e": 2614,
      "Ġavent": 2615,
      "ĠCependant": 2616,
      "Ġabs": 2617,
      "Ġpopulation": 2618,
      "incÃ©e": 2619,
      "ĠEntraÃ®nement": 2620,
      "ĠrÃ©pÃ©": 2621,
      "ĠComm": 2622,
      "ĠTour": 2623,
      "ĠBon": 2624,
      "ĠEnf": 2625,
      "ĠpassÃ©": 2626,
      "ĠÃ©tudi": 2627,
      "Ġvaleur": 2628,
      "ĠdÃ©ter": 2629,
      "ĠCol": 2630,
      "ĠDÃ®ner": 2631,
      "ĠInstructions": 2632,
      "Ġnaturel": 2633,
      "dÃ©jeuner": 2634,
      "Ġprofessionnelle": 2635,
      "ennes": 2636,
      "Ġcru": 2637,
      "anniversaire": 2638,
      "Ġphil": 2639,
      "ourner": 2640,
      "Ġconsci": 2641,
      "ĠrÃ©sultats": 2642,
      "Ġpapier": 2643,
      "Ġobjectifs": 2644,
      "ĠcomprÃ©hension": 2645,
      "son": 2646,
      "cier": 2647,
      "andre": 2648,
      "Ġfondre": 2649,
      "Ġpie": 2650,
      "Ġbonne": 2651,
      "ĠLouvre": 2652,
      "ĠMer": 2653,
      "Ġsuper": 2654,
      "ĠdonnÃ©e": 2655,
      "ĠChine": 2656,
      "ĠHug": 2657,
      "Cher": 2658,
      "Ġsynony": 2659,
      "eurs": 2660,
      "tru": 2661,
      "Ġchar": 2662,
      "Ã©rence": 2663,
      "ĠVictor": 2664,
      "olutions": 2665,
      "ĠHugo": 2666,
      "em": 2667,
      "tend": 2668,
      "Ã©tique": 2669,
      "ĠpincÃ©e": 2670,
      "Ġcla": 2671,
      "ouvez": 2672,
      "Ġsymb": 2673,
      "Ġmoyenne": 2674,
      "ĠÃ©lectr": 2675,
      "Ġlecture": 2676,
      "Ġ14": 2677,
      "rises": 2678,
      "tilles": 2679,
      "Ġperte": 2680,
      "miner": 2681,
      "Ġpropres": 2682,
      "Liste": 2683,
      "gon": 2684,
      "val": 2685,
      "âĤ": 2686,
      "esp": 2687,
      "Ġconva": 2688,
      "Ġautre": 2689,
      "ĠJu": 2690,
      "issent": 2691,
      "arder": 2692,
      "Ġappare": 2693,
      "dustrie": 2694,
      "ĠrÃ©chauffement": 2695,
      "âĤ¬": 2696,
      "ich": 2697,
      "Ġdate": 2698,
      "ises": 2699,
      "ĠdÃ©ci": 2700,
      "Ġplante": 2701,
      "main": 2702,
      "ĠidÃ©": 2703,
      "Ġcade": 2704,
      "ĠTu": 2705,
      "Ġproduction": 2706,
      "bri": 2707,
      "do": 2708,
      "pir": 2709,
      "Ġdeven": 2710,
      "ĠÃ©le": 2711,
      "Ġrecyc": 2712,
      "Ġsignifie": 2713,
      "Ġautour": 2714,
      "Ġstra": 2715,
      "lez": 2716,
      "veux": 2717,
      "osoph": 2718,
      "ĠmodÃ¨le": 2719,
      "urope": 2720,
      "Ex": 2721,
      "aour": 2722,
      "ess": 2723,
      "Ġconne": 2724,
      "Ġremer": 2725,
      "Ã©cu": 2726,
      "ĠÃ©conomique": 2727,
      "tissage": 2728,
      "gorith": 2729,
      "Ġz": 2730,
      "Ġvue": 2731,
      "Ġhaut": 2732,
      "Ġextr": 2733,
      "ĠbrÃ¨ve": 2734,
      "ĠplanÃ¨tes": 2735,
      "Ġcalme": 2736,
      "ĠpÃ©riode": 2737,
      "Ġstyle": 2738,
      "kes": 2739,
      "ints": 2740,
      "ĠvÃ©r": 2741,
      "illÃ©s": 2742,
      "Ġbasilic": 2743,
      "anche": 2744,
      "Ġbord": 2745,
      "ĠÅĵuvre": 2746,
      "ĠÃ©nerg": 2747,
      "Ġpratiquer": 2748,
      "Ġmeilleure": 2749,
      "ĠPersonnage": 2750,
      "Ġble": 2751,
      "Ġgui": 2752,
      "ĠdÃ©rou": 2753,
      "Ġrend": 2754,
      "Ġobser": 2755,
      "Ġpersonnage": 2756,
      "Ġajoutez": 2757,
      "Ġvert": 2758,
      "Ġprincipales": 2759,
      "Ġkm": 2760,
      "ĠcÃ´tÃ©": 2761,
      "ĠDÃ©jeuner": 2762,
      "Ġpolitique": 2763,
      "30": 2764,
      "oins": 2765,
      "aint": 2766,
      "Ġpratique": 2767,
      "ĠcÃ´tÃ©s": 2768,
      "faits": 2769,
      "Ġquotidienne": 2770,
      "Ġstructure": 2771,
      "gÃ¨re": 2772,
      "Ã©ch": 2773,
      "tit": 2774,
      "tire": 2775,
      "Ġheures": 2776,
      "ocat": 2777,
      "Ġrester": 2778,
      "ĠgÃ©nÃ©rale": 2779,
      "ĠSalade": 2780,
      "ĠÃ©vÃ©nements": 2781,
      "âĢĻ": 2782,
      "ĠderniÃ¨re": 2783,
      "Ġpollution": 2784,
      "Or": 2785,
      "Ã©ro": 2786,
      "Ġfix": 2787,
      "orge": 2788,
      "Ġbal": 2789,
      "ĠrÃ¨": 2790,
      "Ġargu": 2791,
      "Ġfonte": 2792,
      "formation": 2793,
      "ĠprÃ©sente": 2794,
      "Ġchacun": 2795,
      "ak": 2796,
      "ĠclÃ©": 2797,
      "Ġsolution": 2798,
      "dec": 2799,
      "Ġquat": 2800,
      "Ġinfor": 2801,
      "ocÃ©": 2802,
      "Ġformule": 2803,
      "Ġmajeur": 2804,
      "ĠLi": 2805,
      "ĠTh": 2806,
      "Ġexpri": 2807,
      "rentissage": 2808,
      "talie": 2809,
      "Nom": 2810,
      "ufs": 2811,
      "ĠcrÃ©e": 2812,
      "Ġmy": 2813,
      "Ġtable": 2814,
      "Ġchez": 2815,
      "Ġplu": 2816,
      "ĠprÃ©server": 2817,
      "Ġcomporte": 2818,
      "Ġavanc": 2819,
      "omÃ¨nes": 2820,
      "ĠphÃ©nomÃ¨nes": 2821,
      "Ġnourriture": 2822,
      "nom": 2823,
      "Ġcoc": 2824,
      "Ġvent": 2825,
      "liquant": 2826,
      "Ġju": 2827,
      "ĠprÃ©v": 2828,
      "ĠMus": 2829,
      "Ġcuit": 2830,
      "ĠÃ©taient": 2831,
      "Ġcela": 2832,
      "Ã©quipe": 2833,
      "Ġinflu": 2834,
      "get": 2835,
      "Ġdom": 2836,
      "Ġlente": 2837,
      "Ġconst": 2838,
      "ell": 2839,
      "aisse": 2840,
      "ting": 2841,
      "ĠrÃ©duction": 2842,
      "ĠspÃ©cifique": 2843,
      "Ġrecommandations": 2844,
      "Ġservice": 2845,
      "icile": 2846,
      "Ġvanille": 2847,
      "euse": 2848,
      "Ġoignon": 2849,
      "auche": 2850,
      "ĠCor": 2851,
      "ousse": 2852,
      "Ã©sar": 2853,
      "effet": 2854,
      "Convertis": 2855,
      "Ġphilosoph": 2856,
      "ia": 2857,
      "Ġgouver": 2858,
      "Ġglace": 2859,
      "ĠSaint": 2860,
      "iciel": 2861,
      "Ġpauses": 2862,
      "Ġbain": 2863,
      "ĠsÃ©ance": 2864,
      "Ġpersonnelle": 2865,
      "Ġderni": 2866,
      "Ġsignification": 2867,
      "Ġaliments": 2868,
      "ĠgÃ©nÃ©rations": 2869,
      "Ġpremier": 2870,
      "Ġdistance": 2871,
      "Ġcir": 2872,
      "Ġfau": 2873,
      "ĠprÃ©f": 2874,
      "enses": 2875,
      "Ġincluent": 2876,
      "Ġguerre": 2877,
      "Ġsituation": 2878,
      "ĠclÃ©s": 2879,
      "Ġglaci": 2880,
      "Ġexercices": 2881,
      "Ġspecta": 2882,
      "Ġnettoy": 2883,
      "Ġconver": 2884,
      "icots": 2885,
      "Ġcomprendre": 2886,
      "Ġnaturelle": 2887,
      "ĠrÃ©sultat": 2888,
      "ĠemblÃ©": 2889,
      "Ġtraduction": 2890,
      "Ġdiscours": 2891,
      "84": 2892,
      "Ġis": 2893,
      "Ġjeux": 2894,
      "asc": 2895,
      "Ġcouleur": 2896,
      "Ġgrandes": 2897,
      "Ġkil": 2898,
      "Ġhach": 2899,
      "ĠmÃ©taph": 2900,
      "12": 2901,
      "Ġsolutions": 2902,
      "Ġmu": 2903,
      "Ġpourquoi": 2904,
      "Ġinv": 2905,
      "urez": 2906,
      "uile": 2907,
      "ĠSi": 2908,
      "Ġcardio": 2909,
      "trigue": 2910,
      "ĠmarchÃ©": 2911,
      "Ã©rique": 2912,
      "Ġdoit": 2913,
      "Ġpotenti": 2914,
      "jus": 2915,
      "Ġpouvez": 2916,
      "Ġverre": 2917,
      "Ġpourrait": 2918,
      "autre": 2919,
      "Ġextra": 2920,
      "Ġmatin": 2921,
      "Ġpoints": 2922,
      "Ġdiscu": 2923,
      "ĠÃītapes": 2924,
      "Ġcannelle": 2925,
      "ĠYork": 2926,
      "Re": 2927,
      "Ġunique": 2928,
      "Ġlac": 2929,
      "Ġentier": 2930,
      "atmosphÃ¨re": 2931,
      "Ġarbres": 2932,
      "ĠGr": 2933,
      "Ġconnu": 2934,
      "Ġfilm": 2935,
      "oxyde": 2936,
      "Ġseule": 2937,
      "ĠIncorpo": 2938,
      "Ġpaix": 2939,
      "Ġdistin": 2940,
      "Ġbienfaits": 2941,
      "Ġbesoins": 2942,
      "ĠdÃ©fis": 2943,
      "Ã©di": 2944,
      "Ġpand": 2945,
      "ĠAu": 2946,
      "Ġsable": 2947,
      "ocu": 2948,
      "Ġcourg": 2949,
      "Ġfondu": 2950,
      "alitÃ©s": 2951,
      "ganiser": 2952,
      "Ġtype": 2953,
      "face": 2954,
      "Ġsommeil": 2955,
      "ĠdÃ©but": 2956,
      "Ġconflit": 2957,
      "cie": 2958,
      "Ã©tu": 2959,
      "Ġcent": 2960,
      "Ġpoint": 2961,
      "Ã©ries": 2962,
      "Ġplanif": 2963,
      "expression": 2964,
      "Ġchoisir": 2965,
      "ocÃ©an": 2966,
      "VI": 2967,
      "Ġpan": 2968,
      "Ġconsi": 2969,
      "Ġcontra": 2970,
      "ĠrÃ©uss": 2971,
      "Ġdioxyde": 2972,
      "Ġmoteur": 2973,
      "Ġsuivantes": 2974,
      "ĠexpÃ©riences": 2975,
      "Ġpetite": 2976,
      "lent": 2977,
      "Ġcet": 2978,
      "unes": 2979,
      "labo": 2980,
      "Ġarticles": 2981,
      "Ã´mes": 2982,
      "ĠLait": 2983,
      "Ġconsiste": 2984,
      "Ġencour": 2985,
      "Ġlarge": 2986,
      "rest": 2987,
      "rai": 2988,
      "ĠCV": 2989,
      "Ġmaladi": 2990,
      "ĠTa": 2991,
      "apprentissage": 2992,
      "Ġpopulaires": 2993,
      "Ġclair": 2994,
      "Ġmaladies": 2995,
      "ensi": 2996,
      "Ġmul": 2997,
      "Ġconte": 2998,
      "amment": 2999,
      "Ġ45": 3000,
      "Ġserait": 3001,
      "Ġconfi": 3002,
      "ĠÃ©quilibrÃ©": 3003,
      "ĠlittÃ©rature": 3004,
      "ĠdÃ©chets": 3005,
      "ĠmÃ©dec": 3006,
      "activitÃ©": 3007,
      "Ġcaus": 3008,
      "...": 3009,
      "Ġtraditionnel": 3010,
      "Ġmotivation": 3011,
      "avent": 3012,
      "cas": 3013,
      "Ġchanger": 3014,
      "Ġhomme": 3015,
      "Ġintern": 3016,
      "Ġassoci": 3017,
      "ĠtÃ©lÃ©phone": 3018,
      "Ġ250": 3019,
      "Ġrencontre": 3020,
      "cÃ¨s": 3021,
      "ige": 3022,
      "yn": 3023,
      "Ġfl": 3024,
      "dif": 3025,
      "ĠPendant": 3026,
      "ouvert": 3027,
      "Ġattein": 3028,
      "Ġmontagnes": 3029,
      "Ġdoucement": 3030,
      "20": 3031,
      "Ã©volution": 3032,
      "Ġfaune": 3033,
      "ĠDÃ©c": 3034,
      "ĠJapon": 3035,
      "Ġdiffic": 3036,
      "Ġobjets": 3037,
      "Ġcomplexe": 3038,
      "Ġplastique": 3039,
      "avoir": 3040,
      "ĠsÃ©ries": 3041,
      "Ġmil": 3042,
      "ĠCon": 3043,
      "000": 3044,
      "Ġoffrant": 3045,
      "Ġpromen": 3046,
      "Ġgarn": 3047,
      "Ġprogramme": 3048,
      "21": 3049,
      "bon": 3050,
      "Ġclaire": 3051,
      "Ġcompa": 3052,
      "Ġmagnif": 3053,
      "ĠJa": 3054,
      "Ġvisu": 3055,
      "ĠrÃ©gion": 3056,
      "Ġencore": 3057,
      "univers": 3058,
      "ibles": 3059,
      "uti": 3060,
      "rel": 3061,
      "undi": 3062,
      "Ġbris": 3063,
      "ĠCÃ©sar": 3064,
      "Ġrecettes": 3065,
      "Ġgroupe": 3066,
      "Ġpolitiques": 3067,
      "Ġartistique": 3068,
      "Ġcurry": 3069,
      "ĠgoÃ»t": 3070,
      "gez": 3071,
      "ĠCam": 3072,
      "Ġoc": 3073,
      "Ã©ni": 3074,
      "Ġriche": 3075,
      "Ġreposer": 3076,
      "Ġcollec": 3077,
      "Ġsources": 3078,
      "Ġcontribuer": 3079,
      "ĠgravitÃ©": 3080,
      "Ġcruci": 3081,
      "The": 3082,
      "Ġloin": 3083,
      "anse": 3084,
      "tice": 3085,
      "Ġbud": 3086,
      "Ġretr": 3087,
      "Ġaujourd": 3088,
      "illant": 3089,
      "Ã§ant": 3090,
      "Ġyeux": 3091,
      "ĠJean": 3092,
      "explo": 3093,
      "Par": 3094,
      "semb": 3095,
      "tamment": 3096,
      "alo": 3097,
      "cue": 3098,
      "Åĵuf": 3099,
      "Ġmarins": 3100,
      "RÃ©sous": 3101,
      "ockta": 3102,
      "ĠmÃ©dias": 3103,
      "Ġlasagnes": 3104,
      "Clas": 3105,
      "dez": 3106,
      "ĠrÃ©solution": 3107,
      "Ġmort": 3108,
      "Ġchi": 3109,
      "sive": 3110,
      "Ã¢ce": 3111,
      "ĠVin": 3112,
      "Ġappro": 3113,
      "ĠdÃ©cis": 3114,
      "ĠdÃ©couvrir": 3115,
      "rÃ©sente": 3116,
      "Ġcheveux": 3117,
      "ĠMÃ©langer": 3118,
      "ĠdÃ©tendre": 3119,
      "Ġrenouvelables": 3120,
      "Ġmieux": 3121,
      "rÃ©er": 3122,
      "urg": 3123,
      "lations": 3124,
      "ĠgrillÃ©": 3125,
      "ĠtÃ¢che": 3126,
      "Ġexplore": 3127,
      "hic": 3128,
      "ĠPain": 3129,
      "ographe": 3130,
      "lÃ©ment": 3131,
      "abil": 3132,
      "Pourquoi": 3133,
      "Ġsymp": 3134,
      "ĠÅĵuvres": 3135,
      "Ã©tait": 3136,
      "ĠAssais": 3137,
      "Ġcoco": 3138,
      "agne": 3139,
      "can": 3140,
      "raient": 3141,
      "ĠSÃ©": 3142,
      "Ġmach": 3143,
      "Ġreste": 3144,
      "Ã©quili": 3145,
      "Ġlongue": 3146,
      "ĠRep": 3147,
      "dence": 3148,
      "erm": 3149,
      "isÃ©e": 3150,
      "ĠLÃ©gumes": 3151,
      "orth": 3152,
      "Ġimplique": 3153,
      "ĠÃ©cris": 3154,
      "Ġpaysage": 3155,
      "Ġcuisiner": 3156,
      "Ġdurables": 3157,
      "Ġrenforcer": 3158,
      "ĠrÃ©seaux": 3159,
      "Ġharicots": 3160,
      "Ġconscience": 3161,
      "Cal": 3162,
      "Ġpouv": 3163,
      "oubli": 3164,
      "Ġcham": 3165,
      "oses": 3166,
      "Ġopportun": 3167,
      "Ã©rences": 3168,
      "ĠrÃ©sume": 3169,
      "Ġpartie": 3170,
      "ĠÃ©nergie": 3171,
      "Ġpromouvoir": 3172,
      "Ġmena": 3173,
      "Ġpetits": 3174,
      "ĠGuerre": 3175,
      "fri": 3176,
      "environ": 3177,
      "Ġsoli": 3178,
      "tiver": 3179,
      "ĠVis": 3180,
      "ĠVÃ©rif": 3181,
      "ĠutilisÃ©": 3182,
      "ĠsÃ©ances": 3183,
      "Ġroy": 3184,
      "ĠpiÃ¨ces": 3185,
      "ĠhachÃ©": 3186,
      "Ġhaute": 3187,
      "Ġalimentaire": 3188,
      "ĠrÃ©union": 3189,
      "ĠrÃ©pÃ©ti": 3190,
      "Ġquatre": 3191,
      "inards": 3192,
      "ĠPla": 3193,
      "ĠCO": 3194,
      "ĠEx": 3195,
      "ĠSu": 3196,
      "ĠApp": 3197,
      "Ġface": 3198,
      "ĠÃ©cr": 3199,
      "Ġappel": 3200,
      "Ġsoutien": 3201,
      "rÃ©sil": 3202,
      "Ġalors": 3203,
      "tionnelle": 3204,
      "Ġidentif": 3205,
      "Ġpratiques": 3206,
      "Ġtouris": 3207,
      "ĠLaissez": 3208,
      "Ġtraditionnelle": 3209,
      "Ġcritique": 3210,
      "PrÃ©": 3211,
      "nant": 3212,
      "Ġdocu": 3213,
      "esprit": 3214,
      "Ã©ment": 3215,
      "tine": 3216,
      "Ġpren": 3217,
      "Ġaltern": 3218,
      "iseaux": 3219,
      "put": 3220,
      "Ġfinanci": 3221,
      "Ġsource": 3222,
      "Ġrapidement": 3223,
      "Ġhabitants": 3224,
      "ĠCommence": 3225,
      "veur": 3226,
      "agement": 3227,
      "ĠÃ©cologique": 3228,
      "ĠChois": 3229,
      "ĠcollÃ¨": 3230,
      "ck": 3231,
      "intrigue": 3232,
      "itable": 3233,
      "Ġfem": 3234,
      "Ġchiff": 3235,
      "Ġpart": 3236,
      "aison": 3237,
      "Ġtrain": 3238,
      "Ã®t": 3239,
      "Ġamus": 3240,
      "Ġnaturelles": 3241,
      "Ġpostu": 3242,
      "Ġpersonnel": 3243,
      "Ġtransform": 3244,
      "vision": 3245,
      "ĠvÃ©hic": 3246,
      "ĠSemaine": 3247,
      "aourt": 3248,
      "ĠrÃ¨g": 3249,
      "15": 3250,
      "rÃ¨s": 3251,
      "Ġom": 3252,
      "Ġsac": 3253,
      "Ġdessert": 3254,
      "Ġquar": 3255,
      "ĠSha": 3256,
      "ĠutilisÃ©e": 3257,
      "ĠGe": 3258,
      "Ġnouveaux": 3259,
      "Quelle": 3260,
      "issement": 3261,
      "ressionn": 3262,
      "Nomme": 3263,
      "Ġfant": 3264,
      "lir": 3265,
      "Ġja": 3266,
      "ĠNous": 3267,
      "credi": 3268,
      "ĠcÃ©lÃ©": 3269,
      "Ġtermes": 3270,
      "pagnol": 3271,
      "ĠPrÃ©chauffer": 3272,
      "Ġlen": 3273,
      "ination": 3274,
      "ĠÃĤ": 3275,
      "ĠPoulet": 3276,
      "Ġinoubli": 3277,
      "ĠmÃ©lo": 3278,
      "Ġpois": 3279,
      "amique": 3280,
      "Ġpasser": 3281,
      "Quels": 3282,
      "Ġrelations": 3283,
      "Ġdirec": 3284,
      "ĠÃ©lectrique": 3285,
      "ĠcrÃªpes": 3286,
      "Ġbudget": 3287,
      "ibilitÃ©": 3288,
      "mbre": 3289,
      "Ġbla": 3290,
      "ĠDÃ©g": 3291,
      "Ġconnue": 3292,
      "fiction": 3293,
      "Ġhumaines": 3294,
      "Ġpied": 3295,
      "Ġsynonyme": 3296,
      "ĠJuli": 3297,
      "PrÃ©sente": 3298,
      "oie": 3299,
      "oubl": 3300,
      "liquer": 3301,
      "Ġconfor": 3302,
      "Ġ16": 3303,
      "tÃ©es": 3304,
      "Ġtravailler": 3305,
      "ĠAjoute": 3306,
      "Ġpoivrons": 3307,
      "Ġconditions": 3308,
      "ĠvidÃ©o": 3309,
      "lÃ©e": 3310,
      "Ġdepuis": 3311,
      "ieur": 3312,
      "char": 3313,
      "ĠCan": 3314,
      "Ġsection": 3315,
      "Ġcomprend": 3316,
      "ĠdiversitÃ©": 3317,
      "Ġpuiss": 3318,
      "Ġtaille": 3319,
      "ĠvariÃ©tÃ©": 3320,
      "ghet": 3321,
      "Ġquanti": 3322,
      "ĠcÃ©lÃ©b": 3323,
      "actions": 3324,
      "Ġlune": 3325,
      "augmentation": 3326,
      "ĠAlbert": 3327,
      "Ġexiste": 3328,
      "gueur": 3329,
      "Ãªtes": 3330,
      "Ġpassion": 3331,
      "aite": 3332,
      "Ġmeilleur": 3333,
      "Ġconstruire": 3334,
      "Ġfavoriser": 3335,
      "Ġvinaigrette": 3336,
      "ĠextrÃªmes": 3337,
      "Ã©quilibre": 3338,
      "Ġlois": 3339,
      "Ġceux": 3340,
      "Ġsin": 3341,
      "Ġsport": 3342,
      "tection": 3343,
      "Ġmas": 3344,
      "Ġbri": 3345,
      "Ġgen": 3346,
      "ĠAvec": 3347,
      "ĠBrÃ©sil": 3348,
      "ĠGran": 3349,
      "Ġdestination": 3350,
      "Ã©mie": 3351,
      "ĠstratÃ©g": 3352,
      "'s": 3353,
      "Ã©v": 3354,
      "Ġlu": 3355,
      "roy": 3356,
      "Ġinten": 3357,
      "Ġsoir": 3358,
      "Ġtraite": 3359,
      "Ġeffectu": 3360,
      "illiam": 3361,
      "Ġlorsque": 3362,
      "ĠboÃ®": 3363,
      "Ġheure": 3364,
      "Ġanglais": 3365,
      "Ġcombustion": 3366,
      "Ġbleu": 3367,
      "Ġblague": 3368,
      "Ġcra": 3369,
      "ourse": 3370,
      "dialement": 3371,
      "Ġelles": 3372,
      "Ġfaci": 3373,
      "ĠMad": 3374,
      "Ġcomplet": 3375,
      "Ġsupp": 3376,
      "endredi": 3377,
      "Ġconstruction": 3378,
      "Ġordre": 3379,
      "Ġlogiciel": 3380,
      "ĠkilomÃ¨": 3381,
      "33": 3382,
      "fiques": 3383,
      "Ġcockta": 3384,
      "Ġeng": 3385,
      "ĠItalie": 3386,
      "ĠdÃ©couverte": 3387,
      "Ġperform": 3388,
      "usement": 3389,
      "Ġsociale": 3390,
      "Ġtotal": 3391,
      "Ġtriangle": 3392,
      "ek": 3393,
      "Ã©lec": 3394,
      "Ġjoy": 3395,
      "Ġaug": 3396,
      "onnes": 3397,
      "Ġoutil": 3398,
      "Ġformes": 3399,
      "Ġdispon": 3400,
      "Ġimportante": 3401,
      "ĠdÃ©tails": 3402,
      "Ġaffec": 3403,
      "Ġquotidien": 3404,
      "Ġcellules": 3405,
      "ĠÃ©vidence": 3406,
      "cemment": 3407,
      "Ġroma": 3408,
      "Ġsaine": 3409,
      "ĠThe": 3410,
      "lacement": 3411,
      "ĠUtiliser": 3412,
      "Ġdomaines": 3413,
      "Ġpluie": 3414,
      "ĠkilomÃ¨tres": 3415,
      "Ġ/": 3416,
      "Ġsomm": 3417,
      "ĠRen": 3418,
      "Ã§ons": 3419,
      "Ġpertur": 3420,
      "Ġsouff": 3421,
      "expÃ©ri": 3422,
      "Ã»te": 3423,
      "ĠidÃ©e": 3424,
      "ĠdorÃ©e": 3425,
      "oxygÃ¨ne": 3426,
      "Ġrenforce": 3427,
      "Ġbananes": 3428,
      "ĠcrÃ©ativitÃ©": 3429,
      "ĠDÃ©gus": 3430,
      "DÃ©": 3431,
      "Ġlisse": 3432,
      "isent": 3433,
      "Ġ13": 3434,
      "Ã¢te": 3435,
      "ĠMont": 3436,
      "Ġentrep": 3437,
      "Ġmari": 3438,
      "ĠcinÃ©": 3439,
      "Ġcommunau": 3440,
      "Comment": 3441,
      "Ġpartage": 3442,
      "Ġlutte": 3443,
      "Ġchambre": 3444,
      "avenir": 3445,
      "hab": 3446,
      "pit": 3447,
      "Ġpeur": 3448,
      "onv": 3449,
      "Ġmens": 3450,
      "ĠCar": 3451,
      "Ġoiseaux": 3452,
      "Ġsuff": 3453,
      "ĠcrÃ©ant": 3454,
      "Ġprince": 3455,
      "ĠrÃ©guliÃ¨res": 3456,
      "Ġordinateur": 3457,
      "Ġcycle": 3458,
      "],": 3459,
      "aff": 3460,
      "inter": 3461,
      "veille": 3462,
      "Ġna": 3463,
      "ĠCom": 3464,
      "loy": 3465,
      "ellement": 3466,
      "dessus": 3467,
      "Ġclient": 3468,
      "Ġriches": 3469,
      "Comp": 3470,
      "ĠÃ©tran": 3471,
      "Ġmusculaire": 3472,
      "ĠGeorge": 3473,
      "gÃ©e": 3474,
      "yo": 3475,
      "yon": 3476,
      "Ġfasc": 3477,
      "Ã¨que": 3478,
      "Ġchose": 3479,
      "ĠrÃ©pond": 3480,
      "Ġsain": 3481,
      "ĠmatÃ©ri": 3482,
      "Ġmarine": 3483,
      "Ġclimat": 3484,
      "Ġinclure": 3485,
      "blir": 3486,
      "ĠÃ©quilibrÃ©e": 3487,
      "Ġpoivron": 3488,
      "ĠCuire": 3489,
      "Ġpossible": 3490,
      "ĠMercredi": 3491,
      "Calcule": 3492,
      "10": 3493,
      "vage": 3494,
      "Ġdanse": 3495,
      "Ã©rer": 3496,
      "isÃ©": 3497,
      "ournez": 3498,
      "Ġgens": 3499,
      "ĠdÃ©jeuner": 3500,
      "Ġsurface": 3501,
      "elette": 3502,
      "Ġhy": 3503,
      "ĠMal": 3504,
      "ĠDis": 3505,
      "Ġquelqu": 3506,
      "ĠdÃ©penses": 3507,
      "istance": 3508,
      "ĠimmÃ©di": 3509,
      "orthographe": 3510,
      "ball": 3511,
      "sy": 3512,
      "ĠsÃ»": 3513,
      "Ġnoix": 3514,
      "Ġchant": 3515,
      "Ġ500": 3516,
      "vient": 3517,
      "Ġsouli": 3518,
      "ĠproductivitÃ©": 3519,
      "Ã¯s": 3520,
      "Ġcapable": 3521,
      "Ġscientifiques": 3522,
      "Ġmis": 3523,
      "Ġmys": 3524,
      "arde": 3525,
      "Ġsurm": 3526,
      "ĠPre": 3527,
      "Ġfabri": 3528,
      "ĠWilliam": 3529,
      "Ġsimples": 3530,
      "accent": 3531,
      "ĠprÃ©fÃ©rÃ©": 3532,
      "Ã©nients": 3533,
      "onvÃ©nients": 3534,
      "Ã¨rent": 3535,
      "ĠCo": 3536,
      "ĠmatiÃ¨re": 3537,
      "Ġdisp": 3538,
      "Ġobs": 3539,
      "okyo": 3540,
      "Ġdemander": 3541,
      "cur": 3542,
      "Ġpais": 3543,
      "Ġci": 3544,
      "Ġavait": 3545,
      "Ġvenir": 3546,
      "ends": 3547,
      "ĠÃīg": 3548,
      "Ġmenthe": 3549,
      "ĠprotÃ©ines": 3550,
      "ĠsuccÃ¨s": 3551,
      "Ã©vÃ©nement": 3552,
      "Ġoriginale": 3553,
      "ĠrÃ©parer": 3554,
      "Ġappareils": 3555,
      "voy": 3556,
      "§a": 3557,
      "Ġpique": 3558,
      "ĠÃ§a": 3559,
      "Ġvilles": 3560,
      "ĠPi": 3561,
      "Ã¢ge": 3562,
      "ĠdÃ©couvre": 3563,
      "ĠdÃ©crire": 3564,
      "Ã©tranger": 3565,
      "ĠdÃ©velopper": 3566,
      "Ġstock": 3567,
      "Ġdragon": 3568,
      "89": 3569,
      "coup": 3570,
      "quet": 3571,
      "Ġmol": 3572,
      "Ġven": 3573,
      "ĠEs": 3574,
      "till": 3575,
      "ĠnommÃ©": 3576,
      "ĠprÃ©sence": 3577,
      "Ġmess": 3578,
      "Ġlongueur": 3579,
      "Ġdroite": 3580,
      "ĠÃ©lectron": 3581,
      "Ġmensu": 3582,
      "ba": 3583,
      "cent": 3584,
      "nique": 3585,
      "rÃªt": 3586,
      "xi": 3587,
      "Ġcentre": 3588,
      "Ġprovo": 3589,
      "Ġru": 3590,
      "ĠAm": 3591,
      "tenant": 3592,
      "Ġapplications": 3593,
      "ĠParce": 3594,
      "Ġprofiter": 3595,
      "Ġromantique": 3596,
      "Ġfraises": 3597,
      "Ġchaude": 3598,
      "cheter": 3599,
      "ĠCordialement": 3600,
      "ĠmÃ©taphore": 3601,
      "VID": 3602,
      "Ar": 3603,
      "iÃ¨res": 3604,
      "Ġfort": 3605,
      "respond": 3606,
      "Ġinte": 3607,
      "endance": 3608,
      "Ġpoisson": 3609,
      "ocra": 3610,
      "utiliser": 3611,
      "Ġalgorith": 3612,
      "ĠRÃ©volution": 3613,
      "ĠdÃ©taillÃ©e": 3614,
      "Ġsouvenir": 3615,
      "ĠUtilise": 3616,
      "Ġbanane": 3617,
      "ĠCamus": 3618,
      "cles": 3619,
      "ctu": 3620,
      "tus": 3621,
      "Ġavez": 3622,
      "Ġvoir": 3623,
      "medi": 3624,
      "Ġparoles": 3625,
      "ousses": 3626,
      "Ã©conomie": 3627,
      "amÃ©lio": 3628,
      "Ġcouper": 3629,
      "Ġall": 3630,
      "Ġcorrespond": 3631,
      "ĠServez": 3632,
      "Ġcampagne": 3633,
      "Ġchiches": 3634,
      "ĠCOVID": 3635,
      "Ã©lectri": 3636,
      "Dis": 3637,
      "tÃ´mes": 3638,
      "Ġvit": 3639,
      "Ã¨ce": 3640,
      "Ġprotection": 3641,
      "Ġdialo": 3642,
      "Ġnaturels": 3643,
      "Ġessay": 3644,
      "ĠsystÃ¨mes": 3645,
      "Ġrecommande": 3646,
      "Ġanimal": 3647,
      "ĠPrÃ©parer": 3648,
      "monie": 3649,
      "Ãīta": 3650,
      "Ġboissons": 3651,
      "ĠcomposÃ©": 3652,
      "Ġmulti": 3653,
      "ĠmystÃ©rie": 3654,
      "xim": 3655,
      "Ġmise": 3656,
      "aul": 3657,
      "Ġproche": 3658,
      "ffre": 3659,
      "Ãªts": 3660,
      "Ġdivers": 3661,
      "ĠTokyo": 3662,
      "Ġincroy": 3663,
      "Ġpoids": 3664,
      "Ġcorri": 3665,
      "tivement": 3666,
      "keting": 3667,
      "ĠmÃ¨tres": 3668,
      "Ġcomportement": 3669,
      "rella": 3670,
      "ĠcinÃ©ma": 3671,
      "Ġpaisible": 3672,
      "ament": 3673,
      "igne": 3674,
      "Ġsensi": 3675,
      "itures": 3676,
      "Ġve": 3677,
      "ĠrÃ©cemment": 3678,
      "mages": 3679,
      "oss": 3680,
      "ath": 3681,
      "illante": 3682,
      "tente": 3683,
      "Ġplate": 3684,
      "Ġessai": 3685,
      "Ġchemin": 3686,
      "Ġaccom": 3687,
      "Ġinspir": 3688,
      "ĠUtilisez": 3689,
      "zzarella": 3690,
      "ĠsymptÃ´mes": 3691,
      "Bon": 3692,
      "lar": 3693,
      "orig": 3694,
      "Ġvir": 3695,
      "Ġfaits": 3696,
      "ĠChar": 3697,
      "Ġvivant": 3698,
      "Ġvisite": 3699,
      "Ġajoute": 3700,
      "Ġconnaiss": 3701,
      "Ġdestinations": 3702,
      "1984": 3703,
      "ĠconsidÃ©": 3704,
      "xiÃ©tÃ©": 3705,
      "ĠdegrÃ©": 3706,
      "Ġbre": 3707,
      "ĠAus": 3708,
      "Ġsug": 3709,
      "ĠNotre": 3710,
      "Ġlaitue": 3711,
      "Ġassurer": 3712,
      "ĠdÃ©coration": 3713,
      "ĠVersez": 3714,
      "Ġillus": 3715,
      "ĠpandÃ©mie": 3716,
      "Ġda": 3717,
      "ind": 3718,
      "ĠdÃ©si": 3719,
      "ĠLors": 3720,
      "oile": 3721,
      "Ġhum": 3722,
      "aca": 3723,
      "ouvrez": 3724,
      "ĠcomplÃ¨te": 3725,
      "Ġsatis": 3726,
      "ĠJo": 3727,
      "Ġram": 3728,
      "ĠVendredi": 3729,
      "Ġespace": 3730,
      "Ġmarketing": 3731,
      "itecture": 3732,
      "Ġpersonnelles": 3733,
      "ĠgrillÃ©s": 3734,
      "cool": 3735,
      "Ġhumain": 3736,
      "Ã©tude": 3737,
      "Ġinternation": 3738,
      "Ġfantas": 3739,
      "ki": 3740,
      "Ġpris": 3741,
      "Ġavenir": 3742,
      "illage": 3743,
      "Ġvale": 3744,
      "Ġgousses": 3745,
      "ĠCur": 3746,
      "Ġpassi": 3747,
      "ĠVous": 3748,
      "emploi": 3749,
      "ĠdeuxiÃ¨me": 3750,
      "Ġconclus": 3751,
      "Ġnutri": 3752,
      "application": 3753,
      "Ġpropri": 3754,
      "ĠÃ©nig": 3755,
      "Ġcarbon": 3756,
      "Ġconduit": 3757,
      "Ġlentement": 3758,
      "Classe": 3759,
      "ĠRepos": 3760,
      "ĠJuliette": 3761,
      "iandre": 3762,
      "pl": 3763,
      "pie": 3764,
      "uve": 3765,
      "well": 3766,
      "Ġaper": 3767,
      "itations": 3768,
      "Ġtant": 3769,
      "ĠfrÃ©": 3770,
      "chÃ©s": 3771,
      "did": 3772,
      "ĠSud": 3773,
      "Ã©solÃ©": 3774,
      "Ġjustice": 3775,
      "Ġcoriandre": 3776,
      "ĠdÃ©licatement": 3777,
      "ĠmÃ©tÃ©o": 3778,
      "\"\"\"": 3779,
      "ĠQui": 3780,
      "Ġtropic": 3781,
      "ĠmÃ©decine": 3782,
      "anxiÃ©tÃ©": 3783,
      "inf": 3784,
      "Ġbro": 3785,
      "Ġrev": 3786,
      "euf": 3787,
      "attend": 3788,
      "Ġfinalement": 3789,
      "alisation": 3790,
      "oint": 3791,
      "ĠspÃ©cifiques": 3792,
      "Ġmagique": 3793,
      "ĠÃ©motions": 3794,
      "ĠSaup": 3795,
      "aventure": 3796,
      "ulaire": 3797,
      "Ġuti": 3798,
      "Ã©tit": 3799,
      "ung": 3800,
      "ĠtÃªte": 3801,
      "Ġfr": 3802,
      "ombres": 3803,
      "orde": 3804,
      "Ġcuites": 3805,
      "ĠFruits": 3806,
      "Ġmois": 3807,
      "tinÃ©ra": 3808,
      "Ġsocial": 3809,
      "taller": 3810,
      "Ġbeaucoup": 3811,
      "Ġnotamment": 3812,
      "Ġindividu": 3813,
      "Ġargument": 3814,
      "ĠmatÃ©riaux": 3815,
      "Ġvaleurs": 3816,
      "hy": 3817,
      "hal": 3818,
      "yant": 3819,
      "anitÃ©": 3820,
      "Ġmasse": 3821,
      "itaires": 3822,
      "ĠÃ©li": 3823,
      "occu": 3824,
      "posez": 3825,
      "ĠÅĵuf": 3826,
      "raison": 3827,
      "mooth": 3828,
      "ĠbasÃ©e": 3829,
      "Ġfondament": 3830,
      "Ġexplorer": 3831,
      "Ġpartager": 3832,
      "Ġsaison": 3833,
      "Ġrelaxation": 3834,
      "Ġroyaume": 3835,
      "Ġalterna": 3836,
      "ĠmÃ©lodie": 3837,
      "ach": 3838,
      "dra": 3839,
      "Ġnum": 3840,
      "Ġpropose": 3841,
      "Ġtelle": 3842,
      "eufs": 3843,
      "Ġanniversaire": 3844,
      "trait": 3845,
      "Ġcolo": 3846,
      "ĠÃ©conomiques": 3847,
      "Ġsecours": 3848,
      "ĠvÃ©gÃ©tali": 3849,
      "ĠdÃ©termin": 3850,
      "bue": 3851,
      "ira": 3852,
      "Ġpage": 3853,
      "Ġaim": 3854,
      "Ġreti": 3855,
      "tÃ©n": 3856,
      "ĠAs": 3857,
      "phon": 3858,
      "andes": 3859,
      "Ġapporter": 3860,
      "crets": 3861,
      "Ġverbe": 3862,
      "ĠÃ©lÃ©g": 3863,
      "ypte": 3864,
      "ĠbrisÃ©e": 3865,
      "Ġdialogue": 3866,
      "organ": 3867,
      "ĠnumÃ©": 3868,
      "sif": 3869,
      "magne": 3870,
      "llemagne": 3871,
      "peare": 3872,
      "ienne": 3873,
      "ĠapprÃ©": 3874,
      "ĠcÃ©rÃ©": 3875,
      "ĠÃ©pinards": 3876,
      "ĠensoleillÃ©": 3877,
      "humanitÃ©": 3878,
      "espÃ¨re": 3879,
      "kespeare": 3880,
      "Ġcocktail": 3881,
      "Ġoutils": 3882,
      "tinÃ©raire": 3883,
      "pire": 3884,
      "Ġcaca": 3885,
      "Ġvrai": 3886,
      "ĠrÃ©ussi": 3887,
      "Ġaugmentation": 3888,
      "Ġ40": 3889,
      "pices": 3890,
      "Ġprior": 3891,
      "Ġformation": 3892,
      "ĠÃ©quilibre": 3893,
      "Ġvagues": 3894,
      "Ġmoments": 3895,
      "ĠOrwell": 3896,
      "Ġgrammaire": 3897,
      "Ġconfiance": 3898,
      "Ġquartier": 3899,
      "ĠShakespeare": 3900,
      "Bonjour": 3901,
      "Ġcarbonara": 3902,
      "iz": 3903,
      "miÃ¨re": 3904,
      "pique": 3905,
      "Ġstim": 3906,
      "Ġlaissez": 3907,
      "Ġfo": 3908,
      "Ġbu": 3909,
      "demp": 3910,
      "Ġprojets": 3911,
      "pÃ©ration": 3912,
      "cret": 3913,
      "ĠinconvÃ©nients": 3914,
      "Ġmeilleurs": 3915,
      "Ġparfum": 3916,
      "Ġremercie": 3917,
      "ĠÃ©crous": 3918,
      "Â²": 3919,
      "erce": 3920,
      "ismes": 3921,
      "Ġactions": 3922,
      "Ġlec": 3923,
      "ortÃ©": 3924,
      "ĠSon": 3925,
      "Ġdimin": 3926,
      "ĠFin": 3927,
      "ĠFor": 3928,
      "Ġsuivi": 3929,
      "ĠÃ©cou": 3930,
      "ĠappÃ©tit": 3931,
      "Ġespagnol": 3932,
      "Ġcook": 3933,
      "heure": 3934,
      "ĠrÃ©gions": 3935,
      "Ġservices": 3936,
      "Ġsortie": 3937,
      "ĠQue": 3938,
      "ĠdÃ©roule": 3939,
      "ĠIncorporer": 3940,
      "Ġatteindre": 3941,
      "Rec": 3942,
      "Ã«": 3943,
      "inaire": 3944,
      "Ġmeu": 3945,
      "Ġfont": 3946,
      "Ġinno": 3947,
      "ĠhÃ©": 3948,
      "Ġmozzarella": 3949,
      "Ġmonu": 3950,
      "ĠBar": 3951,
      "Ġarri": 3952,
      "Ġmanger": 3953,
      "Ġrestaurants": 3954,
      "uropÃ©": 3955,
      "ĠPrÃ©chauffez": 3956,
      "Ġspaghet": 3957,
      "Ġindividus": 3958,
      "Ġprincipale": 3959,
      "Ġprocha": 3960,
      "ĠrÃ©pÃ©titions": 3961,
      "ĠboÃ®te": 3962,
      "Ġsurmonter": 3963,
      "DÃ©solÃ©": 3964,
      "tro": 3965,
      "Ġ|": 3966,
      "ĠÃ©m": 3967,
      "Ġbelle": 3968,
      "Ġgrec": 3969,
      "ĠExp": 3970,
      "Ã©nÃ©": 3971,
      "ĠJeu": 3972,
      "Ġrapp": 3973,
      "ĠVal": 3974,
      "Ġclimatiques": 3975,
      "Ġadresse": 3976,
      "Ġbiographie": 3977,
      "alisme": 3978,
      "Ġphotos": 3979,
      "ĠMardi": 3980,
      "Ġaccomp": 3981,
      "biance": 3982,
      "Ġabsor": 3983,
      "Ġconvain": 3984,
      "ĠavancÃ©es": 3985,
      "ĠderniÃ¨res": 3986,
      "ĠopportunitÃ©s": 3987,
      "Ġconfortable": 3988,
      "50": 3989,
      "ala": 3990,
      "rans": 3991,
      "Ġajus": 3992,
      "Ġlaque": 3993,
      "ramm": 3994,
      "omÃ¨ne": 3995,
      "chez": 3996,
      "Ġarch": 3997,
      "ĠpersÃ©vÃ©": 3998,
      "ĠdÃ©cri": 3999,
      "Ġdistractions": 4000,
      "ĠIns": 4001,
      "obel": 4002,
      "Ġnoirs": 4003,
      "voie": 4004,
      "ĠOrganiser": 4005,
      "Ġfutures": 4006,
      "tacles": 4007,
      "Ġtransports": 4008,
      "Ġobserva": 4009,
      "ĠGrÃ¨ce": 4010,
      "Ġcourgettes": 4011,
      "Ġaugment": 4012,
      "dis": 4013,
      "mÃ©e": 4014,
      "Ġ.": 4015,
      "Ġlaiti": 4016,
      "itant": 4017,
      "Ġpourraient": 4018,
      "ĠnÅĵu": 4019,
      "Ġsurvie": 4020,
      "ĠPh": 4021,
      "Ġsirop": 4022,
      "lanif": 4023,
      "oires": 4024,
      "ĠaccÃ©": 4025,
      "ĠamÃ©ri": 4026,
      "Ġperdu": 4027,
      "ologies": 4028,
      "Ġsociales": 4029,
      "Ġbata": 4030,
      "Ġimportantes": 4031,
      "Ġcandid": 4032,
      "Ġapais": 4033,
      "Ġfutur": 4034,
      "Ġguide": 4035,
      "Ġdiscuter": 4036,
      "Ġfemme": 4037,
      "Ġcookies": 4038,
      "Au": 4039,
      "ka": 4040,
      "Ġdos": 4041,
      "Ġtas": 4042,
      "Ġfro": 4043,
      "vement": 4044,
      "Ġreven": 4045,
      "ĠdÃ©vas": 4046,
      "ĠPÃ¢": 4047,
      "ĠCou": 4048,
      "ĠCro": 4049,
      "Ġplant": 4050,
      "Ġexam": 4051,
      "Ġanalyse": 4052,
      "verbe": 4053,
      "Ġquelque": 4054,
      "tionnel": 4055,
      "Ġrob": 4056,
      "Ġpropos": 4057,
      "Ġcontribue": 4058,
      "Ġlorsqu": 4059,
      "oureux": 4060,
      "annÃ©e": 4061,
      "Ġgrammatic": 4062,
      "Ġgouvernement": 4063,
      "Ġfascin": 4064,
      "Ġlaquelle": 4065,
      "istes": 4066,
      "lever": 4067,
      "Ġtresse": 4068,
      "ĠAmi": 4069,
      "Ã®tre": 4070,
      "Ġplaque": 4071,
      "Ġantique": 4072,
      "Ġexplication": 4073,
      "ĠInde": 4074,
      "ĠbeurrÃ©": 4075,
      "Ġtermin": 4076,
      "heureux": 4077,
      "Ġalimentation": 4078,
      "Ġfournir": 4079,
      "ĠphÃ©nomÃ¨ne": 4080,
      "Ġinformatique": 4081,
      "mart": 4082,
      "Ġ;": 4083,
      "ana": 4084,
      "tiers": 4085,
      "tiÃ¨res": 4086,
      "quÃ©e": 4087,
      "information": 4088,
      "ĠPlace": 4089,
      "ĠLond": 4090,
      "ĠEurope": 4091,
      "atures": 4092,
      "Ġexo": 4093,
      "ĠFromage": 4094,
      "ĠGar": 4095,
      "vention": 4096,
      "renez": 4097,
      "Ġcultiver": 4098,
      "Ġessentielle": 4099,
      "Ġweek": 4100,
      "Ġhumains": 4101,
      "ĠprÃ©cieux": 4102,
      "Ġlocaux": 4103,
      "Ġcontinue": 4104,
      "Ġprincipalement": 4105,
      "restre": 4106,
      "ĠquantitÃ©": 4107,
      "Ġcacao": 4108,
      "ata": 4109,
      "plu": 4110,
      "Ġdemain": 4111,
      "estation": 4112,
      "Ġdifficile": 4113,
      "Ġmarche": 4114,
      "Ġallant": 4115,
      "Ġmesure": 4116,
      "Ġadop": 4117,
      "ĠÃ©nergies": 4118,
      "ĠrÃ©ussir": 4119,
      "expÃ©rience": 4120,
      "Ġmultip": 4121,
      "moothie": 4122,
      "istre": 4123,
      "Ġafin": 4124,
      "Ġtomb": 4125,
      "Ġventes": 4126,
      "Ġpours": 4127,
      "Ġnation": 4128,
      "Ġ\"\"\"": 4129,
      "uler": 4130,
      "pub": 4131,
      "Ġbout": 4132,
      "Ġrouges": 4133,
      "ĠvÃ©gÃ©tariennes": 4134,
      "assurer": 4135,
      "ĠrecommandÃ©": 4136,
      "ĠannÃ©e": 4137,
      "Ġitalienne": 4138,
      "ĠaperÃ§u": 4139,
      "Ġlaitiers": 4140,
      "&#": 4141,
      "lÃ©s": 4142,
      "Ġpeau": 4143,
      "Ġciv": 4144,
      "etta": 4145,
      "Ġvas": 4146,
      "Ġchoses": 4147,
      "Ġcond": 4148,
      "Ġconvers": 4149,
      "ĠPyth": 4150,
      "otes": 4151,
      "Ġhi": 4152,
      "ouverture": 4153,
      "ĠHar": 4154,
      "marie": 4155,
      "Ġcondition": 4156,
      "orizon": 4157,
      "Ġcrucial": 4158,
      "sych": 4159,
      "ĠsÃ»r": 4160,
      "argent": 4161,
      "Ġfuite": 4162,
      "Ġcause": 4163,
      "ruit": 4164,
      "Ġproduire": 4165,
      "Ġtitre": 4166,
      "cose": 4167,
      "Ġperturb": 4168,
      "Ġentreprises": 4169,
      "Â¬": 4170,
      "Ġ<": 4171,
      "Ġfig": 4172,
      "ila": 4173,
      "Ġgraph": 4174,
      "Ġcontac": 4175,
      "ications": 4176,
      "ack": 4177,
      "ĠRemp": 4178,
      "toires": 4179,
      "Ġlien": 4180,
      "Ġperspec": 4181,
      "ĠNobel": 4182,
      "Ġsouha": 4183,
      "Ġclients": 4184,
      "Ġvivre": 4185,
      "Ġgraines": 4186,
      "ĠsÃ©pa": 4187,
      "itude": 4188,
      "Ġclassiques": 4189,
      "ĠrÃ©gime": 4190,
      "Ġracine": 4191,
      "Ġdroits": 4192,
      "ladier": 4193,
      "Ġaventure": 4194,
      "Ġexprimer": 4195,
      "Ġtouristiques": 4196,
      "ComplÃ¨te": 4197,
      "ĠJeudi": 4198,
      "Dame": 4199,
      "his": 4200,
      "Ġama": 4201,
      "cevoir": 4202,
      "Ġquoi": 4203,
      "resser": 4204,
      "ĠPra": 4205,
      "peur": 4206,
      "Ġsaladier": 4207,
      "Ã©ry": 4208,
      "Ġsim": 4209,
      "abs": 4210,
      "Ã´tel": 4211,
      "tribu": 4212,
      "ĠcroÃ»te": 4213,
      "ĠrÃ©guliÃ¨re": 4214,
      "illir": 4215,
      "ĠsalÃ©e": 4216,
      "Ġreconnaiss": 4217,
      "Ġglucose": 4218,
      "ĠvÃ©ritable": 4219,
      "Ġlentilles": 4220,
      "demption": 4221,
      "Al": 4222,
      "ly": 4223,
      "Ġur": 4224,
      "Ġpous": 4225,
      "Ã¨te": 4226,
      "usion": 4227,
      "gement": 4228,
      "ĠdurÃ©e": 4229,
      "aliste": 4230,
      "onnÃ©": 4231,
      "Ġsoin": 4232,
      "Ġmaje": 4233,
      "ĠdÃ©crit": 4234,
      "poque": 4235,
      "Ġoffrent": 4236,
      "Ġcalcu": 4237,
      "Ġprogramm": 4238,
      "Ġchansons": 4239,
      "ĠfaÃ§ons": 4240,
      "Ġactuel": 4241,
      "ĠentraÃ®ner": 4242,
      "Ġdevrait": 4243,
      "ĠappropriÃ©": 4244,
      "Ġconstante": 4245,
      "ĠdegrÃ©s": 4246,
      "Ġpanc": 4247,
      "ong": 4248,
      "ourg": 4249,
      "Ġflo": 4250,
      "Ã¨de": 4251,
      "irs": 4252,
      "tain": 4253,
      "itÃ©e": 4254,
      "ĠprÃ©chauff": 4255,
      "gner": 4256,
      "Ġtrou": 4257,
      "Ã©rable": 4258,
      "tralie": 4259,
      "Ġobjet": 4260,
      "Ġconcer": 4261,
      "Ġmusic": 4262,
      "ĠÃ©lÃ©ment": 4263,
      "ĠdorÃ©s": 4264,
      "ĠfraÃ®ches": 4265,
      "Ġcric": 4266,
      "ternet": 4267,
      "Ġgravitation": 4268,
      "ĠrÃ©seau": 4269,
      "ĠnÃ©gatifs": 4270,
      "Ġinoubliable": 4271,
      "].": 4272,
      "yl": 4273,
      "Ġus": 4274,
      "esse": 4275,
      "Ġprise": 4276,
      "enf": 4277,
      "eng": 4278,
      "Ġlaisse": 4279,
      "Ġflex": 4280,
      "Ġfleur": 4281,
      "ĠquÃªte": 4282,
      "ĠmaÃ¯s": 4283,
      "Ġsup": 4284,
      "umÃ¨re": 4285,
      "ĠmusÃ©e": 4286,
      "Ġparfaite": 4287,
      "upÃ©ry": 4288,
      "Ġquantique": 4289,
      "Ġsentiment": 4290,
      "ExupÃ©ry": 4291,
      "ĠrÃ©pondre": 4292,
      "occup": 4293,
      "bien": 4294,
      "Ġdoi": 4295,
      "quent": 4296,
      "industrie": 4297,
      "rain": 4298,
      "Ġpourrais": 4299,
      "Ġcontemp": 4300,
      "ĠdÃ©fin": 4301,
      "ĠSes": 4302,
      "ĠprÃ©cip": 4303,
      "Ġmoyens": 4304,
      "Ġculturelle": 4305,
      "Ġvapeur": 4306,
      "Ġconception": 4307,
      "Ġlogique": 4308,
      "oudrer": 4309,
      "ĠrÃ´ti": 4310,
      "ĠMusÃ©e": 4311,
      "ĠhachÃ©e": 4312,
      "frique": 4313,
      "Ġsuffis": 4314,
      "Ġmessage": 4315,
      "ĠnumÃ©ro": 4316,
      "ĠdÃ©vasta": 4317,
      "reg": 4318,
      "Ġvacc": 4319,
      "Ġchlor": 4320,
      "Ġgauche": 4321,
      "ĠrÃ©demption": 4322,
      "ĠeuropÃ©": 4323,
      "mage": 4324,
      "ick": 4325,
      "Ġsachet": 4326,
      "toÃ¯": 4327,
      "CrÃ©ez": 4328,
      "Ġutilisez": 4329,
      "Ã§on": 4330,
      "ĠgrÃ¢ce": 4331,
      "Ġmenu": 4332,
      "Ġcorrectement": 4333,
      "Ġcadeau": 4334,
      "Ġdistinc": 4335,
      "Ġfantastique": 4336,
      "ĠLondres": 4337,
      "14": 4338,
      "wn": 4339,
      "Ã©on": 4340,
      "Ġuniques": 4341,
      "urant": 4342,
      "lacer": 4343,
      "ĠAd": 4344,
      "ĠNo": 4345,
      "issons": 4346,
      "Ġmemb": 4347,
      "Ġpersonnalis": 4348,
      "Ġbateau": 4349,
      "ĠWe": 4350,
      "Ġcultures": 4351,
      "Ġroi": 4352,
      "Ġassais": 4353,
      "ĠvÃ©rifiez": 4354,
      "ĠmÃ©dic": 4355,
      "Ġfavorise": 4356,
      "ĠmathÃ©matiques": 4357,
      "Ġhauteur": 4358,
      "Ġresponsable": 4359,
      "abilitÃ©": 4360,
      "ĠVisite": 4361,
      "Ġbref": 4362,
      "lis": 4363,
      "uves": 4364,
      "Ġpression": 4365,
      "Ġcris": 4366,
      "auteur": 4367,
      "tables": 4368,
      "rich": 4369,
      "ricul": 4370,
      "ĠMais": 4371,
      "isses": 4372,
      "Ġcoupe": 4373,
      "Ġpartici": 4374,
      "Ġsera": 4375,
      "cÃ©d": 4376,
      "Ġempreinte": 4377,
      "Ġmajest": 4378,
      "ĠÃ©lectriques": 4379,
      "Ġfautes": 4380,
      "Ġmutu": 4381,
      "dification": 4382,
      "Ġmilieu": 4383,
      "Ġmagnifique": 4384,
      "Ġtraitement": 4385,
      "Ġfacile": 4386,
      "Ġsommet": 4387,
      "ĠPremiÃ¨re": 4388,
      "Ã©lectricitÃ©": 4389,
      "Ġconnaissances": 4390,
      "ĠnÅĵud": 4391,
      "publique": 4392,
      "Ġpancetta": 4393,
      "tou": 4394,
      "anges": 4395,
      "omÃ©o": 4396,
      "Ġnavi": 4397,
      "Ġjoie": 4398,
      "ĠAc": 4399,
      "ĠprÃ©si": 4400,
      "ĠprÃ©occup": 4401,
      "illet": 4402,
      "ĠmontÃ©e": 4403,
      "illez": 4404,
      "forestation": 4405,
      "Ġimpressionn": 4406,
      "Ġplages": 4407,
      "Ġconcentre": 4408,
      "Ġgrands": 4409,
      "Ġpromo": 4410,
      "ĠsituÃ©": 4411,
      "ĠentraÃ®ne": 4412,
      "Ġcherche": 4413,
      "____": 4414,
      "Ġregard": 4415,
      "Ġitalien": 4416,
      "Ġmyst": 4417,
      "Ġglaciers": 4418,
      "ĠimmÃ©diatement": 4419,
      "homme": 4420,
      "naire": 4421,
      "Ġ*": 4422,
      "Ġpou": 4423,
      "Ġpal": 4424,
      "Ã¨nes": 4425,
      "Ġiniti": 4426,
      "ĠDim": 4427,
      "acos": 4428,
      "ĠFais": 4429,
      "toine": 4430,
      "ĠthÃ©ra": 4431,
      "Ġimpliquant": 4432,
      "ondes": 4433,
      "ĠdÃ©cris": 4434,
      "Ġparties": 4435,
      "Ġrelation": 4436,
      "Ġinterp": 4437,
      "Ġformelle": 4438,
      "ĠSamedi": 4439,
      "Ġpetites": 4440,
      "Ġcomplexes": 4441,
      "Ġuniverse": 4442,
      "Ġcertaines": 4443,
      "sembler": 4444,
      "Ġpouvons": 4445,
      "ĠdÃ©crivant": 4446,
      "Ġprogrammation": 4447,
      "Votre": 4448,
      "cot": 4449,
      "jug": 4450,
      "rÃ´le": 4451,
      "ĠZ": 4452,
      "ano": 4453,
      "Ġenfin": 4454,
      "usse": 4455,
      "ĠSur": 4456,
      "ĠcomplÃ¨": 4457,
      "ĠJane": 4458,
      "aime": 4459,
      "ĠÃ©cri": 4460,
      "Ġjeunes": 4461,
      "Ġneige": 4462,
      "Ġaccord": 4463,
      "âĢĿ": 4464,
      "Ġregarder": 4465,
      "tirements": 4466,
      "ĠprÃ©fÃ©rences": 4467,
      "Ġcontex": 4468,
      "habit": 4469,
      "Ġsensibil": 4470,
      "origine": 4471,
      "Ph": 4472,
      "Xe": 4473,
      "ditÃ©": 4474,
      "fu": 4475,
      "vil": 4476,
      "Ġlux": 4477,
      "onf": 4478,
      "anou": 4479,
      "ĠschÃ©": 4480,
      "intes": 4481,
      "Ġvais": 4482,
      "lait": 4483,
      "rid": 4484,
      "ĠindÃ©": 4485,
      "Ġquelle": 4486,
      "guer": 4487,
      "Ġmala": 4488,
      "ĠRou": 4489,
      "Ġliqu": 4490,
      "Ġpeup": 4491,
      "Ġatten": 4492,
      "Ġlumine": 4493,
      "Ġpaysages": 4494,
      "tÃ©rieure": 4495,
      "Ġmaintenant": 4496,
      "Ġblancs": 4497,
      "ower": 4498,
      "tÃ©gor": 4499,
      "Ġspati": 4500,
      "ĠidÃ©al": 4501,
      "Ġcadeaux": 4502,
      "ĠemblÃ©matiques": 4503,
      "Ġincroyable": 4504,
      "Ġtasses": 4505,
      "Ġcivil": 4506,
      "Mon": 4507,
      "gation": 4508,
      "ml": 4509,
      "yez": 4510,
      "Ġsombre": 4511,
      "Ġtor": 4512,
      "ĠÃ®": 4513,
      "Ġfoss": 4514,
      "Ã¨les": 4515,
      "Ã¨vre": 4516,
      "ĠÃ©ter": 4517,
      "Ġgin": 4518,
      "Ġgas": 4519,
      "allage": 4520,
      "otball": 4521,
      "ĠitinÃ©raire": 4522,
      "acitÃ©": 4523,
      "ĠRo": 4524,
      "ĠBo": 4525,
      "Ġarr": 4526,
      "ĠcoupÃ©": 4527,
      "Ġ60": 4528,
      "ĠmarquÃ©": 4529,
      "adresse": 4530,
      "Ġtechnologies": 4531,
      "Ġphysiques": 4532,
      "Ġmondial": 4533,
      "Ġtiens": 4534,
      "Ġmouvements": 4535,
      "Ġlard": 4536,
      "ĠintÃ©ressant": 4537,
      "Ġpertinentes": 4538,
      "Ġprochain": 4539,
      "Ġdifficul": 4540,
      "Ġmariage": 4541,
      "ĠCharles": 4542,
      "Ġutile": 4543,
      "ĠsupÃ©rie": 4544,
      "22": 4545,
      "pt": 4546,
      "Ã©d": 4547,
      "Ġpsych": 4548,
      "oule": 4549,
      "tibles": 4550,
      "Ġaide": 4551,
      "Ġmiel": 4552,
      "ĠmÃªmes": 4553,
      "Ġbure": 4554,
      "Ġeaux": 4555,
      "ĠCa": 4556,
      "Ã©sie": 4557,
      "phab": 4558,
      "lande": 4559,
      "Ġsuite": 4560,
      "Åĵufs": 4561,
      "adap": 4562,
      "ĠOn": 4563,
      "Ġviol": 4564,
      "Ġgratitude": 4565,
      "Ġvision": 4566,
      "Ġrose": 4567,
      "tallation": 4568,
      "Ġemploy": 4569,
      "Ġenfant": 4570,
      "ĠAssurez": 4571,
      "ĠArro": 4572,
      "ĠlÃ©gÃ¨re": 4573,
      "ĠreprÃ©sente": 4574,
      "Ġparticuli": 4575,
      "Ġrisque": 4576,
      "Ġencourage": 4577,
      "ĠAssaisonner": 4578,
      "ĠGrande": 4579,
      "Ġrenforcement": 4580,
      "car": 4581,
      "ubi": 4582,
      "we": 4583,
      "Ġcos": 4584,
      "Ġsmart": 4585,
      "rable": 4586,
      "Ġcontient": 4587,
      "ĠdÃ©forestation": 4588,
      "cident": 4589,
      "ĠProdu": 4590,
      "asser": 4591,
      "Ġindustrie": 4592,
      "otte": 4593,
      "Ġryth": 4594,
      "ĠSh": 4595,
      "ĠcachÃ©": 4596,
      "ĠReti": 4597,
      "ĠmodÃ©": 4598,
      "ĠprÃ¨s": 4599,
      "Ġpersu": 4600,
      "Ġutilisation": 4601,
      "ĠcrÃ©me": 4602,
      "formule": 4603,
      "Ġcoord": 4604,
      "Ġimportance": 4605,
      "Ġcrois": 4606,
      "Ġcapture": 4607,
      "Ġtranqu": 4608,
      "ypt": 4609,
      "ĠprÃ©cis": 4610,
      "Ġpositif": 4611,
      "Ġmachine": 4612,
      "Ġfootball": 4613,
      "ĠpersÃ©vÃ©rance": 4614,
      "AD": 4615,
      "IA": 4616,
      "Ġlou": 4617,
      "Ġloi": 4618,
      "enc": 4619,
      "orange": 4620,
      "ĠrÃ©alitÃ©": 4621,
      "Ġrequ": 4622,
      "alent": 4623,
      "onnez": 4624,
      "ĠmÃ©can": 4625,
      "ĠMerci": 4626,
      "Ġimages": 4627,
      "Ġ400": 4628,
      "eurre": 4629,
      "ĠcarrÃ©e": 4630,
      "omatiques": 4631,
      "Ġcouches": 4632,
      "ĠÃīc": 4633,
      "tisser": 4634,
      "Ġattention": 4635,
      "agers": 4636,
      "Ã»tons": 4637,
      "Ġimmun": 4638,
      "ĠcontrÃ´": 4639,
      "Ġrespectu": 4640,
      "Ġsignificative": 4641,
      "ĠrÃ¨gles": 4642,
      "Ġsouvenirs": 4643,
      "Ġobservateurs": 4644,
      "Ġfossiles": 4645,
      "18": 4646,
      "25": 4647,
      "aie": 4648,
      "mÃªme": 4649,
      "yra": 4650,
      "anim": 4651,
      "Ġtourn": 4652,
      "ĠÃ©min": 4653,
      "Ġnaissance": 4654,
      "rier": 4655,
      "Ġhuile": 4656,
      "ĠcatÃ©gor": 4657,
      "ĠÃ©tabl": 4658,
      "Ġlignes": 4659,
      "Ġparticip": 4660,
      "Ġattra": 4661,
      "jean": 4662,
      "Ġmoulu": 4663,
      "Ġcombin": 4664,
      "Ã¨vement": 4665,
      "ĠappropriÃ©e": 4666,
      "ĠprofondÃ©ment": 4667,
      "Ġblog": 4668,
      "Ġsymbole": 4669,
      "ĠsupplÃ©ment": 4670,
      "ĠValjean": 4671,
      "ĠCouper": 4672,
      "uit": 4673,
      "ĠlÃł": 4674,
      "Ġfille": 4675,
      "Ġbac": 4676,
      "tage": 4677,
      "uivre": 4678,
      "duis": 4679,
      "ĠFran": 4680,
      "Ġboute": 4681,
      "Quelles": 4682,
      "Ġcommuni": 4683,
      "Ġcrous": 4684,
      "ĠgÃ©nÃ©ral": 4685,
      "Ġemploi": 4686,
      "ĠrÃ©fÃ©rence": 4687,
      "tissent": 4688,
      "ĠÃ©toil": 4689,
      "Ġalimentaires": 4690,
      "Ġsignificatif": 4691,
      "Ġplanifier": 4692,
      "Ġsuffisamment": 4693,
      "ĠDimanche": 4694,
      "ura": 4695,
      "anas": 4696,
      "erie": 4697,
      "Ġenne": 4698,
      "neaux": 4699,
      "rime": 4700,
      "ĠPommes": 4701,
      "Ġ23": 4702,
      "Ġdiv": 4703,
      "amb": 4704,
      "vier": 4705,
      "ĠGP": 4706,
      "ĠchaÃ®": 4707,
      "Ġavons": 4708,
      "Ġbouillante": 4709,
      "Ġverts": 4710,
      "Ġtexture": 4711,
      "ĠrÃ©alisations": 4712,
      "ĠadaptÃ©s": 4713,
      "emballage": 4714,
      "ĠÃħufs": 4715,
      "archie": 4716,
      "Ġcircu": 4717,
      "casion": 4718,
      "ĠPÃ¢tes": 4719,
      "Ġbureau": 4720,
      "Tra": 4721,
      "fraÃ®": 4722,
      "Ã©rÃ©": 4723,
      "Ġsites": 4724,
      "eth": 4725,
      "Ġgri": 4726,
      "Ġcompagn": 4727,
      "Ġjapon": 4728,
      "sius": 4729,
      "inement": 4730,
      "chec": 4731,
      "phant": 4732,
      "ĠliÃ©s": 4733,
      "Ġanec": 4734,
      "ĠcarrÃ©": 4735,
      "ulus": 4736,
      "ĠvariÃ©s": 4737,
      "ĠvÃ©gÃ©tales": 4738,
      "Ġtendres": 4739,
      "Ġfaisant": 4740,
      "Ġintroduction": 4741,
      "Ġconnec": 4742,
      "Ġpromenade": 4743,
      "Ġobstacles": 4744,
      "fraÃ®ch": 4745,
      ".)": 4746,
      "45": 4747,
      "com": 4748,
      "ules": 4749,
      "Ġerre": 4750,
      "ores": 4751,
      "Ġveux": 4752,
      "Ġend": 4753,
      "rig": 4754,
      "rivÃ©e": 4755,
      "Ġglo": 4756,
      "Ġinattend": 4757,
      "otto": 4758,
      "ĠDar": 4759,
      "ĠTer": 4760,
      "ĠBien": 4761,
      "ĠutilisÃ©s": 4762,
      "idÃ©e": 4763,
      "Ġsauver": 4764,
      "Ġvies": 4765,
      "Ġfonctionn": 4766,
      "Ġinterne": 4767,
      "Ġsusp": 4768,
      "dote": 4769,
      "Ġretrouv": 4770,
      "ĠbriÃ¨vement": 4771,
      "Ġeffectuer": 4772,
      "ĠLorsque": 4773,
      "ĠapprÃ©ci": 4774,
      "Ġmembres": 4775,
      "ban": 4776,
      "horizon": 4777,
      "len": 4778,
      "Ġavi": 4779,
      "Ġml": 4780,
      "raux": 4781,
      "rateur": 4782,
      "urance": 4783,
      "Ġvou": 4784,
      "estes": 4785,
      "cides": 4786,
      "ĠSt": 4787,
      "para": 4788,
      "athÃ©": 4789,
      "onsieur": 4790,
      "ĠJus": 4791,
      "ĠÃ©tat": 4792,
      "installation": 4793,
      "serve": 4794,
      "ĠrafraÃ®ch": 4795,
      "ĠcrÃ©Ã©": 4796,
      "ĠcrÃ©atures": 4797,
      "Ġconcass": 4798,
      "ĠHuile": 4799,
      "ĠsÃ©cher": 4800,
      "ĠmÃ©langeant": 4801,
      "Ġconfron": 4802,
      "Ġpermettant": 4803,
      "jectif": 4804,
      "Ġfiction": 4805,
      "ĠrÃ©volutionnÃ©": 4806,
      "Ġspectacle": 4807,
      "ĠdÃ©cisions": 4808,
      "Ġchiffres": 4809,
      "Ġdiminu": 4810,
      "Ġcontexte": 4811,
      "gique": 4812,
      "line": 4813,
      "man": 4814,
      "ĠdrÃ´le": 4815,
      "Ġport": 4816,
      "ĠmÃ»": 4817,
      "Ġvoc": 4818,
      "ĠbÃ©nÃ©": 4819,
      "onnÃ©es": 4820,
      "dul": 4821,
      "Ã©rant": 4822,
      "Ġlibre": 4823,
      "omatique": 4824,
      "Ġsouh": 4825,
      "Ġyaourt": 4826,
      "Ġcogn": 4827,
      "ĠRÃ©publique": 4828,
      "ĠMars": 4829,
      "istence": 4830,
      "ĠgÃ©nÃ©rer": 4831,
      "Ġgaran": 4832,
      "ĠÃ©toile": 4833,
      "Ġfermentation": 4834,
      "Ġparfait": 4835,
      "ĠpossibilitÃ©": 4836,
      "Ġancienne": 4837,
      "Ġphilosophie": 4838,
      "ocratie": 4839,
      "ault": 4840,
      "Ġaccompagn": 4841,
      "yrami": 4842,
      "Am": 4843,
      "ile": 4844,
      "trÃ©": 4845,
      "yer": 4846,
      "Ġdin": 4847,
      "ĠlÃ©": 4848,
      "ende": 4849,
      "Ġchale": 4850,
      "ĠCel": 4851,
      "ĠSal": 4852,
      "ĠRoy": 4853,
      "lÃ¨ve": 4854,
      "Ġmeilleures": 4855,
      "Ġprogressi": 4856,
      "Ġconseil": 4857,
      "Ġcerises": 4858,
      "ĠrÃ©flex": 4859,
      "ĠlittÃ©raire": 4860,
      "Reformule": 4861,
      "Ġsolide": 4862,
      "ĠstratÃ©gie": 4863,
      "Ġconclusion": 4864,
      "Ġconvaincu": 4865,
      "Europe": 4866,
      "berg": 4867,
      "Â¡": 4868,
      "Ġdyn": 4869,
      "istique": 4870,
      "Ġamp": 4871,
      "Ġmur": 4872,
      "ourne": 4873,
      "Ġtom": 4874,
      "veurs": 4875,
      "sement": 4876,
      "rim": 4877,
      "Ġtel": 4878,
      "risto": 4879,
      "ĠarriÃ¨re": 4880,
      "formes": 4881,
      "Ġimplications": 4882,
      "Ġ75": 4883,
      "Ġvoyages": 4884,
      "Uni": 4885,
      "Ġtypique": 4886,
      "ignant": 4887,
      "Ġjoue": 4888,
      "ĠMarie": 4889,
      "Ġhistoriques": 4890,
      "avocat": 4891,
      "Ġcorrecte": 4892,
      "ĠemblÃ©matique": 4893,
      "Ġfilms": 4894,
      "ĠcollÃ¨gues": 4895,
      "Ġimmunitaire": 4896,
      "ĠconcassÃ©es": 4897,
      "Des": 4898,
      "Ma": 4899,
      "Mar": 4900,
      "Sug": 4901,
      "clÃ©": 4902,
      "mor": 4903,
      "ulation": 4904,
      "vol": 4905,
      "este": 4906,
      "roit": 4907,
      "roph": 4908,
      "Ġsurve": 4909,
      "icacitÃ©": 4910,
      "ĠVoici": 4911,
      "issante": 4912,
      "ĠdÃ©couv": 4913,
      "identi": 4914,
      "ĠatmosphÃ¨re": 4915,
      "Ġcode": 4916,
      "oleil": 4917,
      "Ġbibli": 4918,
      "ĠmodÃ¨les": 4919,
      "ĠdorÃ©": 4920,
      "Ġendroits": 4921,
      "ĠMÃ©langez": 4922,
      "Ġheureux": 4923,
      "Ġtendances": 4924,
      "ĠCommencez": 4925,
      "Ġomelette": 4926,
      "ĠEspagne": 4927,
      "Lors": 4928,
      "Trans": 4929,
      "Ġpil": 4930,
      "Ġsil": 4931,
      "Ġsommes": 4932,
      "tivant": 4933,
      "intÃ©": 4934,
      "Ġtris": 4935,
      "Ġdess": 4936,
      "Ġvente": 4937,
      "ĠCrÃ©er": 4938,
      "ĠLÃ©on": 4939,
      "ĠSac": 4940,
      "Ġcauses": 4941,
      "ĠprÃªt": 4942,
      "Ġappar": 4943,
      "Ġentretien": 4944,
      "liquez": 4945,
      "omates": 4946,
      "Ġsaup": 4947,
      "extrait": 4948,
      "riez": 4949,
      "midi": 4950,
      "ĠbrÃ»": 4951,
      "ĠRÃ©pÃ©": 4952,
      "Ġ125": 4953,
      "Ġrempli": 4954,
      "Combien": 4955,
      "ĠQuelle": 4956,
      "ĠEnfournez": 4957,
      "Ġconvainc": 4958,
      "Ġrecyclage": 4959,
      "ĠVinci": 4960,
      "ĠChoisir": 4961,
      "Ġperformances": 4962,
      "ĠfrÃ©qu": 4963,
      "phones": 4964,
      "Ġplanter": 4965,
      "vilÃ©g": 4966,
      "Ġcogni": 4967,
      "aci": 4968,
      "offre": 4969,
      "Ġporte": 4970,
      "Ġcm": 4971,
      "Ġcrise": 4972,
      "ĠagrÃ©": 4973,
      "Ġmau": 4974,
      "urn": 4975,
      "Ġenvers": 4976,
      "ieuses": 4977,
      "chi": 4978,
      "ols": 4979,
      "ĠmÃ©n": 4980,
      "ĠMettre": 4981,
      "Ġoutre": 4982,
      "Ġarro": 4983,
      "Ġarbre": 4984,
      "ĠVi": 4985,
      "Ġutilisent": 4986,
      "Ġanti": 4987,
      "imb": 4988,
      "Ġtutor": 4989,
      "Ġ80": 4990,
      "Ġconcentrer": 4991,
      "Ġoptions": 4992,
      "Ġgluten": 4993,
      "Ġamusante": 4994,
      "Ġgenre": 4995,
      "Ġbataille": 4996,
      "Ġliquide": 4997,
      "Ġanecdote": 4998,
      "ĠCelsius": 4999,
      "vence": 5000,
      "Ġlo": 5001,
      "Ġlin": 5002,
      "ister": 5003,
      "inno": 5004,
      "Ġfou": 5005,
      "Ġvoici": 5006,
      "nel": 5007,
      "ĠreÃ§u": 5008,
      "Ġeau": 5009,
      "ersonne": 5010,
      "Ġplut": 5011,
      "ĠMeurs": 5012,
      "Ġsein": 5013,
      "illÃ©es": 5014,
      "ĠRÃ©s": 5015,
      "ĠÃ©crit": 5016,
      "Ġapplication": 5017,
      "Ġchapit": 5018,
      "Ġalcool": 5019,
      "Ġroutine": 5020,
      "Ġkg": 5021,
      "Ġchef": 5022,
      "Ġefficacement": 5023,
      "Ġmilliards": 5024,
      "ĠcÅĵurs": 5025,
      "ĠPersonne": 5026,
      "ĠcrÃ©ative": 5027,
      "Ġcertains": 5028,
      "Ġplonge": 5029,
      "Ġcourageux": 5030,
      "Ġmenace": 5031,
      "ĠProduits": 5032,
      "SuggÃ¨re": 5033,
      "ĠplutÃ´t": 5034,
      "ĠMeursault": 5035,
      "11": 5036,
      "Lundi": 5037,
      "hn": 5038,
      "samique": 5039,
      "Ġpat": 5040,
      "Ġdevenir": 5041,
      "Ġsp": 5042,
      "Ġfines": 5043,
      "ĠÃ©th": 5044,
      "dic": 5045,
      "ĠSoleil": 5046,
      "attention": 5047,
      "aimer": 5048,
      "vate": 5049,
      "Ġaspec": 5050,
      "Ġattractions": 5051,
      "Ġ!\"": 5052,
      "ĠvÃ©gÃ©tariens": 5053,
      "Ġhabitu": 5054,
      "othÃ¨que": 5055,
      "ĠlÃ©gÃ¨rement": 5056,
      "Ġcontenant": 5057,
      "Ġlimites": 5058,
      "ĠpensÃ©es": 5059,
      "ĠÃ©tudiant": 5060,
      "Ġbalsamique": 5061,
      "laboration": 5062,
      "ĠvÃ©hicule": 5063,
      "ĠflexibilitÃ©": 5064,
      "Ġmaladie": 5065,
      "trÃ©m": 5066,
      "ah": 5067,
      "drale": 5068,
      "Ġlaissant": 5069,
      "Ġbran": 5070,
      "ĠrÃ©si": 5071,
      "Ġrue": 5072,
      "endu": 5073,
      "Ġsuit": 5074,
      "ĠRec": 5075,
      "ĠpÃ¢tisser": 5076,
      "Ġinconn": 5077,
      "ĠattÃ©n": 5078,
      "Ġavocat": 5079,
      "Ġgala": 5080,
      "Ġmatch": 5081,
      "ĠrÃ©cent": 5082,
      "Ġferme": 5083,
      "ĠAssure": 5084,
      "ĠintÃ©ressants": 5085,
      "ĠrÃªves": 5086,
      "ĠEnfourner": 5087,
      "athÃ©drale": 5088,
      "innovation": 5089,
      "Donnes": 5090,
      "Form": 5091,
      "dit": 5092,
      "fe": 5093,
      "oire": 5094,
      "Ġdonc": 5095,
      "ĠpÃ©r": 5096,
      "quats": 5097,
      "Ġfes": 5098,
      "ĠleÃ§ons": 5099,
      "illa": 5100,
      "Ġvoix": 5101,
      "veau": 5102,
      "eler": 5103,
      "ĠAt": 5104,
      "ĠBer": 5105,
      "Ġutilisateurs": 5106,
      "vain": 5107,
      "culaires": 5108,
      "Ġexpliquant": 5109,
      "ĠInternet": 5110,
      "Ġastu": 5111,
      "Ġprincipe": 5112,
      "Ġrecherches": 5113,
      "Ġmout": 5114,
      "itare": 5115,
      "ĠtÃ©lÃ©vis": 5116,
      "Ġlangues": 5117,
      "Ġbattre": 5118,
      "ĠProvence": 5119,
      "Ġlimiter": 5120,
      "ĠrÃªve": 5121,
      "ĠinvitÃ©s": 5122,
      "Ġcravate": 5123,
      "Ġdoivent": 5124,
      "ase": 5125,
      "pin": 5126,
      "Ġdente": 5127,
      "enn": 5128,
      "Ġai": 5129,
      "uros": 5130,
      "Ġ24": 5131,
      "Ġexcep": 5132,
      "Ġcam": 5133,
      "andw": 5134,
      "ordre": 5135,
      "igh": 5136,
      "Ġvoyager": 5137,
      "Ġcaptiv": 5138,
      "ĠdÃ©pendance": 5139,
      "Ġguitare": 5140,
      "Ġenvironnementale": 5141,
      "Ġpublique": 5142,
      "ĠQuel": 5143,
      "Ġparticules": 5144,
      "ĠcrevÃ©": 5145,
      "ĠensoleillÃ©e": 5146,
      "ĠcÃ©lÃ©brer": 5147,
      "Ġfabrication": 5148,
      "Ġvraiment": 5149,
      "Ġcalculer": 5150,
      "Phone": 5151,
      "Ġpersuas": 5152,
      "))": 5153,
      "az": 5154,
      "ute": 5155,
      "uant": 5156,
      "ueux": 5157,
      "ym": 5158,
      "Ġ...": 5159,
      "Ġpomme": 5160,
      "Ġaction": 5161,
      "Ġaime": 5162,
      "ester": 5163,
      "ĠdÃ©tente": 5164,
      "ĠPrendre": 5165,
      "Ġproverbe": 5166,
      "Ã¢ti": 5167,
      "ĠtempÃªtes": 5168,
      "Åĵuvre": 5169,
      "Ġconcombre": 5170,
      "gueil": 5171,
      "Ġabord": 5172,
      "Ġaborde": 5173,
      "mmif": 5174,
      "Ġcerveau": 5175,
      "accord": 5176,
      "ĠSeine": 5177,
      "ĠentraÃ®nÃ©": 5178,
      "Ġportable": 5179,
      "Ġmusculation": 5180,
      "Ġillum": 5181,
      "Ġromaine": 5182,
      "Ġnutriments": 5183,
      "Ġtellement": 5184,
      "Recette": 5185,
      "Ġmonuments": 5186,
      "Ġlardons": 5187,
      "ADN": 5188,
      "log": 5189,
      "rus": 5190,
      "viter": 5191,
      "Ġtacos": 5192,
      "Ġdessus": 5193,
      "Ġense": 5194,
      "ĠÃ©pices": 5195,
      "lam": 5196,
      "ĠPower": 5197,
      "Ġhom": 5198,
      "Ġexces": 5199,
      "Ġexcel": 5200,
      "ĠMex": 5201,
      "trer": 5202,
      "ĠTout": 5203,
      "Ġliens": 5204,
      "Ġaromatiques": 5205,
      "Ġtouche": 5206,
      "Ġminim": 5207,
      "Ġincont": 5208,
      "extÃ©rieur": 5209,
      "Ġcorde": 5210,
      "Ġrepos": 5211,
      "Ġimportants": 5212,
      "Ġ2021": 5213,
      "ario": 5214,
      "Ġanimales": 5215,
      "mission": 5216,
      "ĠLaisse": 5217,
      "Ġpapillon": 5218,
      "Ġseulement": 5219,
      "ĠtrouvÃ©": 5220,
      "architecture": 5221,
      "Ġfixer": 5222,
      "Ã¢teaux": 5223,
      "Ġsugges": 5224,
      "ĠrÃ©flexion": 5225,
      "ĠattÃ©nuer": 5226,
      "?\"": 5227,
      "nitÃ©": 5228,
      "opportun": 5229,
      "xe": 5230,
      "ĠdÃ»": 5231,
      "Ġmix": 5232,
      "Ġtort": 5233,
      "Ġnor": 5234,
      "seur": 5235,
      "ĠPot": 5236,
      "ĠCons": 5237,
      "Ġaurez": 5238,
      "Ġ21": 5239,
      "Ġhora": 5240,
      "riss": 5241,
      "Ġsaveurs": 5242,
      "Ġsuivez": 5243,
      "ĠdÃ©couvert": 5244,
      "ĠHe": 5245,
      "ĠcroÃ»tons": 5246,
      "Ġconfir": 5247,
      "Ġtechnique": 5248,
      "ception": 5249,
      "ĠderriÃ¨re": 5250,
      "Ġassurez": 5251,
      "ĠprivÃ©e": 5252,
      "Ġfamilles": 5253,
      "Ġlancer": 5254,
      "Ġconflits": 5255,
      "ĠmalgrÃ©": 5256,
      "Ġcombustibles": 5257,
      "ĠcoupÃ©es": 5258,
      "imale": 5259,
      "Ġdocument": 5260,
      "oubliez": 5261,
      "Ġmeuble": 5262,
      "Ġtombent": 5263,
      "registre": 5264,
      "Traduis": 5265,
      "CrÃ©er": 5266,
      "aÃ®tre": 5267,
      "bul": 5268,
      "gar": 5269,
      "gypte": 5270,
      "ote": 5271,
      "Ġdol": 5272,
      "Ġpresse": 5273,
      "ĠpÃ©p": 5274,
      "Ġvaisse": 5275,
      "rois": 5276,
      "Ġinst": 5277,
      "ĠAb": 5278,
      "ĠMonsieur": 5279,
      "Ġimag": 5280,
      "ĠTr": 5281,
      "ĠBe": 5282,
      "Ġpubli": 5283,
      "Ġmarin": 5284,
      "Ġdouces": 5285,
      "Ġajoutant": 5286,
      "arition": 5287,
      "ĠvÃ©gÃ©tale": 5288,
      "ĠAlors": 5289,
      "ĠnÃ©gatif": 5290,
      "Ġactuellement": 5291,
      "Ã©chelle": 5292,
      "Ġprochaine": 5293,
      "Ġdiminution": 5294,
      "ĠlÃ©ger": 5295,
      "Transforme": 5296,
      "233": 5297,
      "Point": 5298,
      "ctique": 5299,
      "ja": 5300,
      "nous": 5301,
      "Ġlet": 5302,
      "erti": 5303,
      "indi": 5304,
      "tec": 5305,
      "Ġfen": 5306,
      "omne": 5307,
      "ompes": 5308,
      "auph": 5309,
      "dia": 5310,
      "ĠCer": 5311,
      "Ġpropa": 5312,
      "Ġ22": 5313,
      "ĠSte": 5314,
      "ĠMo": 5315,
      "Ġsemb": 5316,
      "ĠDick": 5317,
      "peau": 5318,
      "Ġmammif": 5319,
      "Ġposition": 5320,
      "ĠRiz": 5321,
      "Ġmodes": 5322,
      "ĠTomates": 5323,
      "serts": 5324,
      "ĠÃīplu": 5325,
      "Ġaller": 5326,
      "Ġrenard": 5327,
      "agit": 5328,
      "Ġverser": 5329,
      "Ġpermis": 5330,
      "Ġprofessionnelles": 5331,
      "Ġsalle": 5332,
      "Ġreconnaissance": 5333,
      "Ġcamping": 5334,
      "ĠvÃ©ritÃ©": 5335,
      "Ġbords": 5336,
      "Ġinfluen": 5337,
      "Ġconvertissent": 5338,
      "Ġpotentiel": 5339,
      "Ġcollecte": 5340,
      "Ġreconnaissant": 5341,
      "Ġcontempora": 5342,
      "vÃ©es": 5343,
      "yons": 5344,
      "Ġ000": 5345,
      "Ġstation": 5346,
      "artis": 5347,
      "omÃ©": 5348,
      "Ġbe": 5349,
      "chÃ©e": 5350,
      "ĠPoi": 5351,
      "ĠCap": 5352,
      "Ġproches": 5353,
      "ĠAllemagne": 5354,
      "ppe": 5355,
      "llez": 5356,
      "Ã©criture": 5357,
      "rup": 5358,
      "ĠBat": 5359,
      "ĠGo": 5360,
      "Ġproduc": 5361,
      "ada": 5362,
      "ĠÃ©gale": 5363,
      "Ġsaumon": 5364,
      "ĠnuclÃ©": 5365,
      "Ġbrille": 5366,
      "Ġchem": 5367,
      "ĠprÃ©senter": 5368,
      "Ġindique": 5369,
      "Ġorganismes": 5370,
      "ĠPourquoi": 5371,
      "ponses": 5372,
      "Ġfacteurs": 5373,
      "Ġnettoyer": 5374,
      "Ġdifficiles": 5375,
      "ĠMadrid": 5376,
      "ĠÃ©lectronique": 5377,
      "ĠAusten": 5378,
      "ĠpropriÃ©tÃ©": 5379,
      "ĠÃ©liminer": 5380,
      "Ã«l": 5381,
      "Ġabsorb": 5382,
      "ĠthÃ©rapie": 5383,
      "Ġindustrielle": 5384,
      "ĠPotter": 5385,
      "De": 5386,
      "Tu": 5387,
      "tranger": 5388,
      "Ġouverte": 5389,
      "istant": 5390,
      "inois": 5391,
      "Ġmange": 5392,
      "Ġbai": 5393,
      "ĠPratique": 5394,
      "Ġdix": 5395,
      "Ġmonarchie": 5396,
      "iens": 5397,
      "Ã©riques": 5398,
      "Ġalphab": 5399,
      "Ġprincipes": 5400,
      "cade": 5401,
      "ĠgarÃ§on": 5402,
      "Ġautomatique": 5403,
      "Ġlocale": 5404,
      "ĠMahal": 5405,
      "ussie": 5406,
      "daction": 5407,
      "Ġancien": 5408,
      "Ġconnex": 5409,
      "Ġretrouver": 5410,
      "Ġdocuments": 5411,
      "Ġsouligne": 5412,
      "ĠdÃ©termination": 5413,
      "Ġcristal": 5414,
      "Ġcompagnie": 5415,
      "iant": 5416,
      "ront": 5417,
      "Ġouvert": 5418,
      "roche": 5419,
      "usta": 5420,
      "Ġnotes": 5421,
      "tale": 5422,
      "rimer": 5423,
      "maines": 5424,
      "terie": 5425,
      "tillas": 5426,
      "ĠDu": 5427,
      "ettez": 5428,
      "Ã©nario": 5429,
      "Ġcourant": 5430,
      "Ġplacer": 5431,
      "ĠÃ©crire": 5432,
      "viÃ¨res": 5433,
      "posi": 5434,
      "Ġvide": 5435,
      "Ġboules": 5436,
      "Ġcoins": 5437,
      "ĠÃªtes": 5438,
      "ĠvisitÃ©": 5439,
      "Ġpopulations": 5440,
      "ĠÃ©pis": 5441,
      "Ġcrypt": 5442,
      "Ġtoil": 5443,
      "ĠMax": 5444,
      "ussures": 5445,
      "Ġparticulier": 5446,
      "ĠlibÃ©rer": 5447,
      "Ġcrev": 5448,
      "Ġaventures": 5449,
      "Ġnettoyage": 5450,
      "Ġcomparaison": 5451,
      "PrÃ©pare": 5452,
      "Ġfroide": 5453,
      "Ġrythme": 5454,
      "andwich": 5455,
      "ĠPowerPoint": 5456,
      "opportunitÃ©": 5457,
      "ĠpÃ©pites": 5458,
      "**": 5459,
      "cus": 5460,
      "lon": 5461,
      "mente": 5462,
      "Ġ#": 5463,
      "Ġdit": 5464,
      "oute": 5465,
      "ĠsÃ©qu": 5466,
      "Ġsmoothie": 5467,
      "time": 5468,
      "Ġadul": 5469,
      "Ġtaux": 5470,
      "liers": 5471,
      "Ġeuros": 5472,
      "ĠPois": 5473,
      "osa": 5474,
      "ĠElles": 5475,
      "Ġopp": 5476,
      "Ġcaf": 5477,
      "Ġpoissons": 5478,
      "Ġpati": 5479,
      "ĠBas": 5480,
      "Ġpersil": 5481,
      "Ã©galitÃ©": 5482,
      "ĠriviÃ¨res": 5483,
      "Ġphotographie": 5484,
      "Ġbases": 5485,
      "ĠprogrÃ¨s": 5486,
      "outter": 5487,
      "Ġsolitude": 5488,
      "Ġconcepts": 5489,
      "ĠChamp": 5490,
      "Ġrespect": 5491,
      "embauche": 5492,
      "Ġdevenue": 5493,
      "urgence": 5494,
      "ĠPython": 5495,
      "Ġmauv": 5496,
      "):": 5497,
      "Mad": 5498,
      "opÃ©ration": 5499,
      "vue": 5500,
      "win": 5501,
      "Ġdois": 5502,
      "Ġpyrami": 5503,
      "ensemble": 5504,
      "Ġenrich": 5505,
      "ĠrÃ©ponses": 5506,
      "Ġreb": 5507,
      "ĠintÃ©rieure": 5508,
      "Ġ300": 5509,
      "ogÃ¨ne": 5510,
      "Ġambiance": 5511,
      "ĠGog": 5512,
      "Ġperdre": 5513,
      "Ġconsul": 5514,
      "ĠOut": 5515,
      "Ġrien": 5516,
      "ĠmusÃ©es": 5517,
      "issements": 5518,
      "Ġinstaller": 5519,
      "ĠDÃ©velopp": 5520,
      "ĠsituÃ©e": 5521,
      "ĠpÃ©riodes": 5522,
      "ĠÃ©clatant": 5523,
      "Ġrisques": 5524,
      "ĠXI": 5525,
      "ĠpensÃ©e": 5526,
      "ĠMalgrÃ©": 5527,
      "Ġintellig": 5528,
      "Ġalgorithme": 5529,
      "amÃ©lioration": 5530,
      "Ġremerciement": 5531,
      "ĠamÃ©rica": 5532,
      "Ġconversation": 5533,
      "ĠprÃ©occupations": 5534,
      "Ġchapitre": 5535,
      "Formule": 5536,
      "vÃ©s": 5537,
      "ĠtÃ©": 5538,
      "Ġfroid": 5539,
      "Ġdesign": 5540,
      "Ġchang": 5541,
      "ĠPlanif": 5542,
      "ĠCr": 5543,
      "Ġmaxim": 5544,
      "umer": 5545,
      "rue": 5546,
      "Ġformat": 5547,
      "ĠOeufs": 5548,
      "Ġboule": 5549,
      "ĠremportÃ©": 5550,
      "ĠscÃ©nario": 5551,
      "ĠÃ©val": 5552,
      "Ġartistes": 5553,
      "Ġremuant": 5554,
      "ĠocÃ©an": 5555,
      "avance": 5556,
      "Ġunivers": 5557,
      "ĠzÃ©ro": 5558,
      "Orgueil": 5559,
      "Ġdomicile": 5560,
      "ĠvÃ©hicules": 5561,
      "ĠJohn": 5562,
      "ĠCurie": 5563,
      "Ġinnovant": 5564,
      "ĠGarn": 5565,
      "ĠprÃ©sident": 5566,
      "Ġpromotion": 5567,
      "ĠmystÃ¨re": 5568,
      "Ġuniverselle": 5569,
      "Ġincontourn": 5570,
      "ĠalphabÃ©tique": 5571,
      "16": 5572,
      "fait": 5573,
      "Ġdauph": 5574,
      "once": 5575,
      "Ġlead": 5576,
      "Ġenchant": 5577,
      "Ġbras": 5578,
      "ĠCourse": 5579,
      "ĠLu": 5580,
      "ĠLune": 5581,
      "ĠFi": 5582,
      "Ã©cris": 5583,
      "iennent": 5584,
      "tenu": 5585,
      "ĠBa": 5586,
      "Ġimpli": 5587,
      "ĠimpÃ©ra": 5588,
      "ĠutilisÃ©es": 5589,
      "Ġdonnant": 5590,
      "Ġconcise": 5591,
      "Ġoranges": 5592,
      "Ã»ts": 5593,
      "Ġterrestre": 5594,
      "Ġabri": 5595,
      "Ġjoueurs": 5596,
      "ĠÃ©conomiser": 5597,
      "introduction": 5598,
      "Ġseul": 5599,
      "Ġdroit": 5600,
      "Ġcontinu": 5601,
      "minez": 5602,
      "Ġbarbe": 5603,
      "oublie": 5604,
      "Ġsouffle": 5605,
      "Ġcorrige": 5606,
      "Ġalternative": 5607,
      "Ġexotiques": 5608,
      "Ġflore": 5609,
      "ĠprÃ©cipitations": 5610,
      "Ġcroustill": 5611,
      "Ġglob": 5612,
      "ĠRoyaume": 5613,
      "ĠbibliothÃ¨que": 5614,
      "ĠGogh": 5615,
      ".-": 5616,
      "Einstein": 5617,
      "tante": 5618,
      "ye": 5619,
      "Ġtiss": 5620,
      "Ġtap": 5621,
      "orme": 5622,
      "Ġvu": 5623,
      "lau": 5624,
      "Ġby": 5625,
      "Ġbrise": 5626,
      "ĠbÅĵuf": 5627,
      "Ġjung": 5628,
      "illance": 5629,
      "Ã©cole": 5630,
      "ortant": 5631,
      "Ġlion": 5632,
      "Ġforces": 5633,
      "vail": 5634,
      "culaire": 5635,
      "Ġallure": 5636,
      "Ġatom": 5637,
      "Ġriv": 5638,
      "ĠÃītaler": 5639,
      "ĠdÃ©pression": 5640,
      "ĠÃ©pre": 5641,
      "obs": 5642,
      "Ġemplacement": 5643,
      "Ġmenac": 5644,
      "Ġpassant": 5645,
      "ĠYou": 5646,
      "ĠrÃ©cente": 5647,
      "martre": 5648,
      "ows": 5649,
      "Ġdirection": 5650,
      "ĠcommencÃ©": 5651,
      "ĠrÃ©alistes": 5652,
      "Ġressourcer": 5653,
      "Ġfacil": 5654,
      "ĠpremiÃ¨res": 5655,
      "ĠmÃ©morable": 5656,
      "Ġrenouvelable": 5657,
      "espoir": 5658,
      "Ġderniers": 5659,
      "ĠMontmartre": 5660,
      "ĠmystÃ©rieux": 5661,
      "Ġvirus": 5662,
      "Ġrevanche": 5663,
      "ĠdifficultÃ©s": 5664,
      "ĠfonctionnalitÃ©s": 5665,
      "17": 5666,
      "ÃŃ": 5667,
      "Ġach": 5668,
      "Ġmig": 5669,
      "rage": 5670,
      "uri": 5671,
      "omma": 5672,
      "Ġenvoy": 5673,
      "Ġquand": 5674,
      "alise": 5675,
      "Ġpros": 5676,
      "Ġici": 5677,
      "gnant": 5678,
      "ĠTrouve": 5679,
      "aider": 5680,
      "Ġcourb": 5681,
      "Ġverte": 5682,
      "cakes": 5683,
      "faction": 5684,
      "ĠconcentrÃ©": 5685,
      "Ġreturn": 5686,
      "ĠcrÃªpe": 5687,
      "Ġrevenus": 5688,
      "ĠPlacez": 5689,
      "Ġpersuasif": 5690,
      "bum": 5691,
      "cl": 5692,
      "don": 5693,
      "mand": 5694,
      "rtilles": 5695,
      "Ġdevant": 5696,
      "oul": 5697,
      "Ġailes": 5698,
      "Ġmurs": 5699,
      "ley": 5700,
      "lades": 5701,
      "Ġconservation": 5702,
      "ĠrÃ©ci": 5703,
      "Ġsurprise": 5704,
      "cifique": 5705,
      "Ġparle": 5706,
      "ĠMich": 5707,
      "icerie": 5708,
      "oconde": 5709,
      "ĠRussie": 5710,
      "ami": 5711,
      "ogle": 5712,
      "ĠBu": 5713,
      "ouvertes": 5714,
      "ĠInstru": 5715,
      "apolÃ©": 5716,
      "minant": 5717,
      "ĠPrÃ©jug": 5718,
      "Ġphysi": 5719,
      "agir": 5720,
      "Ġcalottes": 5721,
      "Ġvoie": 5722,
      "Ġsourire": 5723,
      "Ãīgypte": 5724,
      "Analyse": 5725,
      "Ġextrater": 5726,
      "Ġlointain": 5727,
      "ĠSÃ©lection": 5728,
      "ĠVÃ©rifier": 5729,
      "Ġsinon": 5730,
      "Ġjoyeux": 5731,
      "Ġessayer": 5732,
      "Ġcoupez": 5733,
      "ĠDarwin": 5734,
      "ĠhomogÃ¨ne": 5735,
      "apolÃ©on": 5736,
      "osition": 5737,
      "tÃ¨res": 5738,
      "Ġdir": 5739,
      "Ġclaires": 5740,
      "tiqu": 5741,
      "Ġtente": 5742,
      "tager": 5743,
      "tations": 5744,
      "ĠrÃ©daction": 5745,
      "ĠPu": 5746,
      "Ġparler": 5747,
      "Ġautor": 5748,
      "Ġrire": 5749,
      "Ġsemaines": 5750,
      "gnÃ©": 5751,
      "Ġtherm": 5752,
      "Ã®le": 5753,
      "Ġapporte": 5754,
      "Ġapprend": 5755,
      "Ġcommerce": 5756,
      "Ġatti": 5757,
      "Ġpiano": 5758,
      "existence": 5759,
      "oudrez": 5760,
      "Ġcalmer": 5761,
      "Ġformulaire": 5762,
      "ĠYaourt": 5763,
      "Ġchoisi": 5764,
      "ody": 5765,
      "----": 5766,
      "tÃ©ries": 5767,
      "Ġmyrtilles": 5768,
      "Ġmagnifiques": 5769,
      "ĠcollÃ¨gue": 5770,
      "Ġpostule": 5771,
      "Ġretirer": 5772,
      "Ġaccomplir": 5773,
      "ĠdÃ©finir": 5774,
      "Ġprogressivement": 5775,
      "Ġdollar": 5776,
      "Madame": 5777,
      "App": 5778,
      "go": 5779,
      "gÃ¨res": 5780,
      "ju": 5781,
      "Ġcible": 5782,
      "ancer": 5783,
      "Ġmyth": 5784,
      "cessi": 5785,
      "ĠprÃ©servation": 5786,
      "ĠmaÃ®t": 5787,
      "amande": 5788,
      "ĠTarte": 5789,
      "ĠJoconde": 5790,
      "ĠÃ©cologiques": 5791,
      "Ġcarte": 5792,
      "Ġesprit": 5793,
      "ordinateur": 5794,
      "Ġmani": 5795,
      "Ġroute": 5796,
      "Ã©taille": 5797,
      "Ġjournal": 5798,
      "Ġcaptivant": 5799,
      "Ġoffrir": 5800,
      "Ġtraditions": 5801,
      "ypoth": 5802,
      "Ġdevenu": 5803,
      "Ġapprof": 5804,
      "Ġsacs": 5805,
      "Ġmensuel": 5806,
      "Ġcandidature": 5807,
      "Ġcivilisation": 5808,
      "Ġlouche": 5809,
      "ĠbactÃ©ries": 5810,
      "Ġbarbecue": 5811,
      "Ġjungle": 5812,
      "Ce": 5813,
      "fie": 5814,
      "uel": 5815,
      "Ġdur": 5816,
      "Ġpur": 5817,
      "Ġpress": 5818,
      "inaires": 5819,
      "ĠÃ©bl": 5820,
      "Ġbut": 5821,
      "Ġchinois": 5822,
      "difi": 5823,
      "aller": 5824,
      "ĠdÃ©fi": 5825,
      "less": 5826,
      "Ġinves": 5827,
      "ĠCrÃ©e": 5828,
      "Ġsections": 5829,
      "Ġim": 5830,
      "ĠDi": 5831,
      "Ġmodif": 5832,
      "entretien": 5833,
      "Ġutilisateur": 5834,
      "ĠÃīvi": 5835,
      "cessoires": 5836,
      "ĠprÃ©parez": 5837,
      "Ġfini": 5838,
      "ĠdÃ©veloppÃ©": 5839,
      "Ġbrins": 5840,
      "Ġrempl": 5841,
      "ĠrÃ©fÃ¨re": 5842,
      "Ġboeuf": 5843,
      "Ġhabitats": 5844,
      "Ġcellule": 5845,
      "Ġbloc": 5846,
      "Ġglaciaires": 5847,
      "Ġmachines": 5848,
      "Ġidentifier": 5849,
      "affaires": 5850,
      "ĠÃ©tranges": 5851,
      "pirer": 5852,
      "ĠFinalement": 5853,
      "ĠhÃ©ros": 5854,
      "Ġfigure": 5855,
      "Ġperspectives": 5856,
      "Ġsmartphone": 5857,
      "Ġerreurs": 5858,
      "ĠBerlin": 5859,
      "Ġmoutarde": 5860,
      "Ġlettres": 5861,
      "ĠsÃ©quence": 5862,
      "ĠÃ©blou": 5863,
      "Jour": 5864,
      "ML": 5865,
      "coli": 5866,
      "ho": 5867,
      "uf": 5868,
      "Ã©poque": 5869,
      "ert": 5870,
      "erais": 5871,
      "Ġchasse": 5872,
      "Ġgros": 5873,
      "Ġrelig": 5874,
      "ĠConc": 5875,
      "ĠIs": 5876,
      "Ġpop": 5877,
      "Ġprend": 5878,
      "stron": 5879,
      "Ġcommerci": 5880,
      "Ġatta": 5881,
      "Ġbrun": 5882,
      "ĠprivilÃ©g": 5883,
      "Ġ196": 5884,
      "ĠmÃ©dica": 5885,
      "Ġdouceur": 5886,
      "ĠprÃ©fÃ©rÃ©e": 5887,
      "Ġchacune": 5888,
      "Ġlutter": 5889,
      "avion": 5890,
      "Ġpositive": 5891,
      "Ġremercier": 5892,
      "Ġcourgette": 5893,
      "Ġencourager": 5894,
      "ĠVÃ©rifiez": 5895,
      "charger": 5896,
      "Ġinspirante": 5897,
      "ĠrÃ©ussite": 5898,
      "ĠFrank": 5899,
      "aimerais": 5900,
      "Ġsuggestions": 5901,
      "by": 5902,
      "gÃ©s": 5903,
      "itez": 5904,
      "mÃ¨re": 5905,
      "ouler": 5906,
      "inet": 5907,
      "Ġacheter": 5908,
      "Ġmic": 5909,
      "ĠÃ©du": 5910,
      "Ġintemp": 5911,
      "ffectu": 5912,
      "Ġcumin": 5913,
      "illitÃ©": 5914,
      "ĠTra": 5915,
      "ĠBan": 5916,
      "Ġradio": 5917,
      "oyeux": 5918,
      "ĠGusta": 5919,
      "ĠÃ©quiv": 5920,
      "ĠOu": 5921,
      "ingÃ©n": 5922,
      "Ġcroissant": 5923,
      "Ġpreuve": 5924,
      "Ġfonds": 5925,
      "Ġjoueur": 5926,
      "Ġfiltre": 5927,
      "Ġcitoy": 5928,
      "Ġmontant": 5929,
      "Ġcelui": 5930,
      "Ġsorci": 5931,
      "icien": 5932,
      "ĠdÃ©mocratie": 5933,
      "annÃ©es": 5934,
      "ĠidÃ©ale": 5935,
      "ĠcommunautÃ©": 5936,
      "Ġpassionn": 5937,
      "Ġtropicale": 5938,
      "Ġsimil": 5939,
      "ĠtranquillitÃ©": 5940,
      "acidification": 5941,
      "Ġtutoriel": 5942,
      "Ġexcessive": 5943,
      "ĠOutput": 5944,
      "duite": 5945,
      "hou": 5946,
      "lf": 5947,
      "vore": 5948,
      "Ġlance": 5949,
      "Ġcelle": 5950,
      "iscu": 5951,
      "ĠmÃ¨re": 5952,
      "ĠÃĢ": 5953,
      "ĠÃ©oli": 5954,
      "chain": 5955,
      "Ġconvi": 5956,
      "ĠLundi": 5957,
      "ello": 5958,
      "ĠMe": 5959,
      "ĠMonte": 5960,
      "Ġsoins": 5961,
      "Ġsolaires": 5962,
      "Ã©cosyst": 5963,
      "Ġcourants": 5964,
      "tival": 5965,
      "vrez": 5966,
      "ĠÃ©cras": 5967,
      "Ġacqu": 5968,
      "Ã©rateur": 5969,
      "Ġsoutenir": 5970,
      "Donnez": 5971,
      "Ġmangue": 5972,
      "Ġsauve": 5973,
      "Ġvives": 5974,
      "ĠspÃ©ciale": 5975,
      "Ġmondiales": 5976,
      "visions": 5977,
      "Ġfamili": 5978,
      "ĠmÃ©diter": 5979,
      "ĠintÃ©rÃªt": 5980,
      "cription": 5981,
      "ĠdÃ©solÃ©": 5982,
      "Ġobjectif": 5983,
      "ĠadaptÃ©es": 5984,
      "Ġplongent": 5985,
      "Ġcardiovas": 5986,
      "ĠRenaissance": 5987,
      "ĠRouge": 5988,
      "ĠXIXe": 5989,
      "ĠGustave": 5990,
      "Aus": 5991,
      "SS": 5992,
      "TML": 5993,
      "iPhone": 5994,
      "mant": 5995,
      "âĦ": 5996,
      "Ġpense": 5997,
      "inÃ©e": 5998,
      "Ġmeur": 5999,
      "ĠfÃ©": 6000,
      "ĠPo": 6001,
      "ĠPic": 6002,
      "mati": 6003,
      "Ġfati": 6004,
      "Ãªter": 6005,
      "Ġdia": 6006,
      "Ġrect": 6007,
      "ĠEnsemble": 6008,
      "ĠforÃªts": 6009,
      "Ġcarita": 6010,
      "emple": 6011,
      "Ġrespi": 6012,
      "ĠInput": 6013,
      "Ġbouillir": 6014,
      "Ġcoin": 6015,
      "Ġposs": 6016,
      "heit": 6017,
      "ĠdÃ©place": 6018,
      "Ġfournies": 6019,
      "Ġchimiques": 6020,
      "ĠÃ©motionnel": 6021,
      "ĠadaptÃ©": 6022,
      "truction": 6023,
      "essence": 6024,
      "Paris": 6025,
      "Ġalgorithmes": 6026,
      "ĠSaupoudrer": 6027,
      "ĠnumÃ©rique": 6028,
      "Ġgraphique": 6029,
      "Ġmajeure": 6030,
      "Ġattentivement": 6031,
      "ĠGPT": 6032,
      "Ġaspects": 6033,
      "Ġtoilette": 6034,
      "âĦ¢": 6035,
      "cune": 6036,
      "ks": 6037,
      "intÃ©g": 6038,
      "quez": 6039,
      "veilles": 6040,
      "aulo": 6041,
      "lice": 6042,
      "Ġni": 6043,
      "Ġchance": 6044,
      "Ġconcrets": 6045,
      "ĠrÃ©dige": 6046,
      "Ġdansent": 6047,
      "Ġoxy": 6048,
      "Ãªtres": 6049,
      "Ġ37": 6050,
      "ĠRubi": 6051,
      "Ġnoms": 6052,
      "Ġdistribu": 6053,
      "ĠChac": 6054,
      "Ġyou": 6055,
      "Ġassembler": 6056,
      "Ġproduisent": 6057,
      "ĠmangÃ©": 6058,
      "Ġgratin": 6059,
      "renheit": 6060,
      "ĠrÃ©gulier": 6061,
      "Ġversez": 6062,
      "ockchain": 6063,
      "accÃ¨s": 6064,
      "Ġrecommandation": 6065,
      "Ġsecondes": 6066,
      "ĠentraÃ®nant": 6067,
      "ĠinfÃ©rie": 6068,
      "Ġmontre": 6069,
      "ternitÃ©": 6070,
      "exercices": 6071,
      "Ġprofondes": 6072,
      "Ġpertinents": 6073,
      "Ġappareil": 6074,
      "ĠGrÃ¢ce": 6075,
      "ĠdÃ©butants": 6076,
      "ĠTaj": 6077,
      "ĠrÃ¨gle": 6078,
      "Ġpuissance": 6079,
      "Ġjoyeuse": 6080,
      "Ġhydra": 6081,
      "Ġsatisfaction": 6082,
      "ĠÃ©nigme": 6083,
      "ĠBarcel": 6084,
      "Ġarchite": 6085,
      "ĠprÃ©chauffÃ©": 6086,
      "Ġinterpersonne": 6087,
      "ĠchaÃ®ne": 6088,
      "AmÃ©rique": 6089,
      "Ġplongeurs": 6090,
      "Ġconnexion": 6091,
      "ĠimpÃ©ratif": 6092,
      "Australie": 6093,
      "ĠRubik": 6094,
      "Ajou": 6095,
      "Elle": 6096,
      "MÃ©lan": 6097,
      "ya": 6098,
      "Ġir": 6099,
      "tile": 6100,
      "tima": 6101,
      "rad": 6102,
      "ito": 6103,
      "Ġvise": 6104,
      "Ġpourriez": 6105,
      "ney": 6106,
      "mpire": 6107,
      "Ġchron": 6108,
      "ĠchÃ¢teau": 6109,
      "Ġconcret": 6110,
      "Ġquit": 6111,
      "algorith": 6112,
      "ast": 6113,
      "endroit": 6114,
      "Ġsaines": 6115,
      "ĠFer": 6116,
      "Ã©cran": 6117,
      "ĠRh": 6118,
      "ĠÃ©tablir": 6119,
      "gerie": 6120,
      "ĠBro": 6121,
      "ĠNouve": 6122,
      "ĠNord": 6123,
      "oyau": 6124,
      "cherche": 6125,
      "Ġconsistance": 6126,
      "tronomie": 6127,
      "aprÃ¨s": 6128,
      "Ġposture": 6129,
      "ĠPrÃ©voir": 6130,
      "Ġcollaboration": 6131,
      "Ġinteractions": 6132,
      "Ġbrou": 6133,
      "Ġcombat": 6134,
      "Ġessentielles": 6135,
      "Ġpassage": 6136,
      "Chois": 6137,
      "saac": 6138,
      "Ġparcour": 6139,
      "ĠsiÃ¨cles": 6140,
      "ĠvanillÃ©": 6141,
      "Ġflui": 6142,
      "ĠComment": 6143,
      "Ġrobinet": 6144,
      "Ġpoursuivre": 6145,
      "Ġconcernant": 6146,
      "ĠWeb": 6147,
      "ĠschÃ©ma": 6148,
      "Ġtortillas": 6149,
      "adapter": 6150,
      "Ġcommuniquer": 6151,
      "ĠcamÃ©ra": 6152,
      "ĠInstruction": 6153,
      "cola": 6154,
      "gram": 6155,
      "mÃ¨": 6156,
      "vaux": 6157,
      "ĠdÃ¨s": 6158,
      "ĠcathÃ©drale": 6159,
      "Ġste": 6160,
      "infor": 6161,
      "Ġax": 6162,
      "ĠtÃ´t": 6163,
      "Ġlever": 6164,
      "ĠÃ©tin": 6165,
      "ĠrÃ©v": 6166,
      "dies": 6167,
      "ĠComp": 6168,
      "ĠLou": 6169,
      "Ġauth": 6170,
      "onnaie": 6171,
      "illets": 6172,
      "tumes": 6173,
      "utilisateur": 6174,
      "ĠplaÃ®t": 6175,
      "ĠamitiÃ©": 6176,
      "Ġappren": 6177,
      "ĠNom": 6178,
      "ĠprÃ©pare": 6179,
      "Ġprintemps": 6180,
      "Ġpoign": 6181,
      "agÃ©": 6182,
      "Ġchaudes": 6183,
      "Ġformel": 6184,
      "Ġclasse": 6185,
      "Ġrefu": 6186,
      "ĠcÃ´te": 6187,
      "ĠgÃ©omÃ©": 6188,
      "Ġremplace": 6189,
      "Ġsouris": 6190,
      "Ġracines": 6191,
      "Ġmontrer": 6192,
      "Ġfactor": 6193,
      "ĠintÃ©ressante": 6194,
      "Antoine": 6195,
      "Ġrisotto": 6196,
      "ĠrÃ´tis": 6197,
      "âĤ¬âĦ¢": 6198,
      "Ġapproche": 6199,
      "Ġprenant": 6200,
      "ĠtransformÃ©": 6201,
      "ĠCanada": 6202,
      "Ġdisponibles": 6203,
      "ĠcommunautÃ©s": 6204,
      "Ġrichesse": 6205,
      "ĠÃ©lectroniques": 6206,
      "amÃ©liorer": 6207,
      "Ġplateforme": 6208,
      "Ġstimuler": 6209,
      "Ġspaghetti": 6210,
      "Ġspaghettis": 6211,
      "absur": 6212,
      "rimante": 6213,
      "trÃ©mitÃ©": 6214,
      "Ġinstant": 6215,
      "ĠÃ©pisode": 6216,
      "Ġphysici": 6217,
      "Ã©cosystÃ¨me": 6218,
      "coter": 6219,
      "lÃ©es": 6220,
      "land": 6221,
      "mith": 6222,
      "poser": 6223,
      "ÂĤ": 6224,
      "Ġpit": 6225,
      "reur": 6226,
      "ingrÃ©dients": 6227,
      "informations": 6228,
      "Ġlaine": 6229,
      "urr": 6230,
      "arbre": 6231,
      "Ġbra": 6232,
      "taine": 6233,
      "mez": 6234,
      "Ġchute": 6235,
      "Ġgarder": 6236,
      "Ġreine": 6237,
      "Ġrepose": 6238,
      "cite": 6239,
      "ĠProm": 6240,
      "Ġinfini": 6241,
      "ĠmÃ©mor": 6242,
      "ĠprÃ©d": 6243,
      "ĠMix": 6244,
      "Ġsaveur": 6245,
      "phe": 6246,
      "Ġravi": 6247,
      "Ġracont": 6248,
      "vages": 6249,
      "ĠGi": 6250,
      "ĠÃīviter": 6251,
      "ĠHTML": 6252,
      "ĠfarinÃ©": 6253,
      "tores": 6254,
      "ĠWind": 6255,
      "ĠrÃ©frig": 6256,
      "Ġmagas": 6257,
      "ĠOrgan": 6258,
      "Ġprofondeur": 6259,
      "ĠSauce": 6260,
      "Ġsavoure": 6261,
      "Ġromain": 6262,
      "ĠmolÃ©cu": 6263,
      "ĠcÃ©rÃ©ales": 6264,
      "Ġcontact": 6265,
      "ĠÃ®le": 6266,
      "ĠcrÃ©meuse": 6267,
      "Ġdynamique": 6268,
      "Ġgalax": 6269,
      "Ġcaptivante": 6270,
      "ĠGoogle": 6271,
      "Ġdollars": 6272,
      "35": 6273,
      "Se": 6274,
      "imag": 6275,
      "lines": 6276,
      "ril": 6277,
      "Ġ{": 6278,
      "onie": 6279,
      "oncÃ©": 6280,
      "Ġsombres": 6281,
      "Ġlaiss": 6282,
      "Ġfentes": 6283,
      "seille": 6284,
      "gembre": 6285,
      "mpe": 6286,
      "ĠrÃ©ser": 6287,
      "Ġred": 6288,
      "Ġsurp": 6289,
      "onnec": 6290,
      "onnet": 6291,
      "Ġsemble": 6292,
      "Ãªche": 6293,
      "Ġsavoir": 6294,
      "Ġtragique": 6295,
      "ĠBang": 6296,
      "ĠNettoy": 6297,
      "Ġconsomma": 6298,
      "Ġricot": 6299,
      "Ġtechnologiques": 6300,
      "Ġcalcul": 6301,
      "Ġmental": 6302,
      "Ġcercle": 6303,
      "Ġessentiels": 6304,
      "jectifs": 6305,
      "Ġefficaces": 6306,
      "bile": 6307,
      "efficacitÃ©": 6308,
      "ĠÃ©motionnelle": 6309,
      "Ġanciens": 6310,
      "ĠColisÃ©e": 6311,
      "Organ": 6312,
      "Ġtableau": 6313,
      "ĠavancÃ©e": 6314,
      "Ġisol": 6315,
      "ĠcausÃ©e": 6316,
      "Ġgarniture": 6317,
      "Ġmission": 6318,
      "Ġdisparition": 6319,
      "Ãītape": 6320,
      "ĠcoordonnÃ©es": 6321,
      "Ġricotta": 6322,
      "Es": 6323,
      "crire": 6324,
      "ning": 6325,
      "sous": 6326,
      "Ã©chec": 6327,
      "Ġpist": 6328,
      "Ġdevient": 6329,
      "erita": 6330,
      "eta": 6331,
      "Ġtre": 6332,
      "arrivÃ©e": 6333,
      "Ġvins": 6334,
      "Ã¨ge": 6335,
      "rice": 6336,
      "Ġrej": 6337,
      "Ġeux": 6338,
      "ĠPl": 6339,
      "ĠPri": 6340,
      "Ġrent": 6341,
      "Ġrange": 6342,
      "acts": 6343,
      "ĠcomplÃ©": 6344,
      "ĠmatÃ©rie": 6345,
      "Ġpointe": 6346,
      "Ã©rir": 6347,
      "Ġsign": 6348,
      "ĠdÃ©couvertes": 6349,
      "Ġ(-": 6350,
      "travail": 6351,
      "Ġmarque": 6352,
      "adop": 6353,
      "ĠÃ©qui": 6354,
      "ĠOb": 6355,
      "ĠpersonnalitÃ©": 6356,
      "ĠrÃ©duisant": 6357,
      "Ġpermettre": 6358,
      "lexandre": 6359,
      "ĠspÃ©cial": 6360,
      "Ġcapables": 6361,
      "iciels": 6362,
      "âĢļ": 6363,
      "ĠÃ©tudes": 6364,
      "Ã©panou": 6365,
      "Ã©picerie": 6366,
      "Ġdescriptif": 6367,
      "gherita": 6368,
      "Ġharmonie": 6369,
      "ĠÃ©levÃ©": 6370,
      "restres": 6371,
      "ĠassociÃ©s": 6372,
      "Ġpostuler": 6373,
      "ĠDÃ©gustez": 6374,
      "Ġstockage": 6375,
      "Ġprovoquant": 6376,
      "ĠprioritÃ©s": 6377,
      "ĠaccÃ©lÃ©": 6378,
      "Ġgingembre": 6379,
      "animaux": 6380,
      "Ġgrippe": 6381,
      "Ġdinosa": 6382,
      "Ġchaleure": 6383,
      "Ġhoraires": 6384,
      "Ġtapis": 6385,
      "Ġintempore": 6386,
      "iscuits": 6387,
      "ĠoxygÃ¨ne": 6388,
      "Ġdinosaures": 6389,
      "ctures": 6390,
      "met": 6391,
      "Ãħ": 6392,
      "Ġporter": 6393,
      "anie": 6394,
      "Ġstre": 6395,
      "Ġmaux": 6396,
      "arry": 6397,
      "Ġfid": 6398,
      "Ġvic": 6399,
      "Ġbless": 6400,
      "Ġ->": 6401,
      "Ġchats": 6402,
      "ĠPaulo": 6403,
      "ĠLeur": 6404,
      "Ġproxim": 6405,
      "ĠprocÃ©d": 6406,
      "ĠSmith": 6407,
      "Ġdiver": 6408,
      "Ã©nagement": 6409,
      "Ġrecru": 6410,
      "Ġaccue": 6411,
      "angere": 6412,
      "Ġadoles": 6413,
      "Ġmuscles": 6414,
      "ĠbasÃ©": 6415,
      "ĠRÃ©du": 6416,
      "automne": 6417,
      "Ġtofu": 6418,
      "ĠgÃ©ograph": 6419,
      "ĠvÃ©rification": 6420,
      "Ġraisons": 6421,
      "Ġlocal": 6422,
      "Ġentour": 6423,
      "ĠCube": 6424,
      "ĠreprÃ©sentation": 6425,
      "ĠdÃ©cision": 6426,
      "Ġaffecte": 6427,
      "ĠPierre": 6428,
      "Ġramen": 6429,
      "ĠPratiquer": 6430,
      "enfant": 6431,
      "ĠmodÃ©rÃ©e": 6432,
      "ĠmÃ©canique": 6433,
      "Ġhabitudes": 6434,
      "Ġmauvais": 6435,
      "ĠÃ©preuves": 6436,
      "informatique": 6437,
      "Ġpittores": 6438,
      "ĠproximitÃ©": 6439,
      "As": 6440,
      "Afrique": 6441,
      "atif": 6442,
      "cain": 6443,
      "citÃ©s": 6444,
      "ding": 6445,
      "Ðĵ": 6446,
      "Ġsquats": 6447,
      "unettes": 6448,
      "inateurs": 6449,
      "Ġayant": 6450,
      "omelette": 6451,
      "ĠÃ©mer": 6452,
      "ĠÃ©labo": 6453,
      "Ġnar": 6454,
      "ĠdÃ©tec": 6455,
      "ĠPe": 6456,
      "Ġproc": 6457,
      "eut": 6458,
      "octur": 6459,
      "occasion": 6460,
      "ĠTe": 6461,
      "ĠJeux": 6462,
      "ĠBois": 6463,
      "ĠÃ©cran": 6464,
      "Ġaccessoires": 6465,
      "Ġamoureux": 6466,
      "ĠrÃ©sili": 6467,
      "Ġespa": 6468,
      "vert": 6469,
      "empreinte": 6470,
      "vente": 6471,
      "venue": 6472,
      "Ġconstitu": 6473,
      "Ġrenomm": 6474,
      "igurer": 6475,
      "Ġconcombres": 6476,
      "Ġsauvages": 6477,
      "Ġbouton": 6478,
      "Ġreproduction": 6479,
      "ĠrÃ©duit": 6480,
      "ĠlumiÃ¨res": 6481,
      "tionnelles": 6482,
      "apper": 6483,
      "ĠÃ©pique": 6484,
      "Ġinclut": 6485,
      "incent": 6486,
      "Ġblanch": 6487,
      "Ġtranche": 6488,
      "ĠintÃ©g": 6489,
      "cript": 6490,
      "Ġtraditionnels": 6491,
      "Ġgazeuse": 6492,
      "Ãītranger": 6493,
      "Ġlocales": 6494,
      "Ġretour": 6495,
      "ĠÃ©cosystÃ¨me": 6496,
      "Ġblockchain": 6497,
      "Ġzone": 6498,
      "ĠExplo": 6499,
      "Ġcapturer": 6500,
      "logan": 6501,
      "ĠenchantÃ©e": 6502,
      "algorithme": 6503,
      "ÂĤÂ¬": 6504,
      "DÃ©taille": 6505,
      "EA": 6506,
      "Ton": 6507,
      "VÃ©rif": 6508,
      "cÃ©e": 6509,
      "gÃ©n": 6510,
      "way": 6511,
      "ĠpÃ©": 6512,
      "Ġcouver": 6513,
      "Ġscul": 6514,
      "Ġslogan": 6515,
      "iseau": 6516,
      "Ġlapin": 6517,
      "Ġvois": 6518,
      "Ã¨tes": 6519,
      "tains": 6520,
      "ĠchÃ¢teaux": 6521,
      "ĠrÃ©cu": 6522,
      "ĠrÃ©server": 6523,
      "ĠdÃ©sert": 6524,
      "Ġaura": 6525,
      "Ġrues": 6526,
      "Ġteintes": 6527,
      "ĠSec": 6528,
      "ĠMura": 6529,
      "Ġ32": 6530,
      "Ġcadre": 6531,
      "Ġmoelle": 6532,
      "tue": 6533,
      "stra": 6534,
      "aix": 6535,
      "Ã´te": 6536,
      "ĠcarrÃ©s": 6537,
      "entir": 6538,
      "Union": 6539,
      "Ġtransp": 6540,
      "Ġbient": 6541,
      "Ġfeuille": 6542,
      "Ġgrou": 6543,
      "ĠdÃ©taillÃ©es": 6544,
      "Ġmoder": 6545,
      "Ġcheva": 6546,
      "Ġtotale": 6547,
      "ĠcapacitÃ©s": 6548,
      "ĠtÃ©lÃ©travail": 6549,
      "Ġmerveilles": 6550,
      "Ġtraditionnelles": 6551,
      "Ġsalu": 6552,
      "Ġglaces": 6553,
      "Ġartistiques": 6554,
      "Ġfavorisant": 6555,
      "hiver": 6556,
      "ĠconsÃ©quence": 6557,
      "Ġrespecter": 6558,
      "Ġsubs": 6559,
      "ĠdÃ©cidÃ©": 6560,
      "ĠÃ©nergÃ©tique": 6561,
      "Ġconvertir": 6562,
      "Ġpanneaux": 6563,
      "Ġlargement": 6564,
      "Ġinternationale": 6565,
      "ĠagrÃ©able": 6566,
      "Ġsculp": 6567,
      "Bo": 6568,
      "ailles": 6569,
      "ft": 6570,
      "ice": 6571,
      "pend": 6572,
      "Ġ}": 6573,
      "esses": 6574,
      "analyse": 6575,
      "user": 6576,
      "lip": 6577,
      "chent": 6578,
      "ĠPaix": 6579,
      "asa": 6580,
      "ash": 6581,
      "ĠinÃ©g": 6582,
      "Ġinfin": 6583,
      "ffins": 6584,
      "Ġplants": 6585,
      "Ġ27": 6586,
      "eum": 6587,
      "ĠSta": 6588,
      "ĠprÃ©venir": 6589,
      "illent": 6590,
      "ĠFix": 6591,
      "amlet": 6592,
      "Ġmodifi": 6593,
      "Ġmobile": 6594,
      "ĠTri": 6595,
      "Ġmondes": 6596,
      "Ġras": 6597,
      "Ġpuissant": 6598,
      "Ġcartes": 6599,
      "Ġcouch": 6600,
      "RÃ©digez": 6601,
      "Ġminute": 6602,
      "trices": 6603,
      "dessous": 6604,
      "Ġchaussures": 6605,
      "pulation": 6606,
      "Ġrendez": 6607,
      "Ġsauter": 6608,
      "Ġposer": 6609,
      "Ġtermine": 6610,
      "Ġdouble": 6611,
      "ĠWi": 6612,
      "ĠdÃ©pend": 6613,
      "teindre": 6614,
      "Ġfilet": 6615,
      "Ġtricoter": 6616,
      "Ġbolo": 6617,
      "pÃ¨te": 6618,
      "Envoie": 6619,
      "ĠprÃ©cieuse": 6620,
      "Ġclar": 6621,
      "ĠÃ©tude": 6622,
      "Ġglucides": 6623,
      "alimentation": 6624,
      "Ġcentrale": 6625,
      "Ġchantent": 6626,
      "Ġillustrer": 6627,
      "ĠvÃ©gÃ©talienne": 6628,
      "ĠQueen": 6629,
      "ĠInsta": 6630,
      "Ġparticiper": 6631,
      "ĠparticuliÃ¨rement": 6632,
      "ĠcatÃ©gorie": 6633,
      "ĠnuclÃ©aire": 6634,
      "ĠPratiquez": 6635,
      "Ġrectangle": 6636,
      "ĠBarcelone": 6637,
      "Ġrefuge": 6638,
      "ĠWindows": 6639,
      "ĠrÃ©frigÃ©rateur": 6640,
      "ĠbientÃ´t": 6641,
      "99": 6642,
      "Gu": 6643,
      "con": 6644,
      "hume": 6645,
      "vou": 6646,
      "vations": 6647,
      "Â³": 6648,
      "ÂĴ": 6649,
      "Ġouv": 6650,
      "Ġpres": 6651,
      "Ġcot": 6652,
      "Ġcyc": 6653,
      "ananas": 6654,
      "eron": 6655,
      "isÃ©es": 6656,
      "quÃªte": 6657,
      "ity": 6658,
      "Ġfu": 6659,
      "organiser": 6660,
      "Ġvain": 6661,
      "laise": 6662,
      "ĠbiÃ¨re": 6663,
      "Ġnoctur": 6664,
      "Ġchante": 6665,
      "ĠrÃ©utilis": 6666,
      "dition": 6667,
      "ĠCos": 6668,
      "ĠCoupe": 6669,
      "Ġproven": 6670,
      "mails": 6671,
      "paraÃ®": 6672,
      "Ġexc": 6673,
      "Ġsecrets": 6674,
      "ĠDel": 6675,
      "gnaise": 6676,
      "Ġsages": 6677,
      "Ġdim": 6678,
      "orts": 6679,
      "ĠJourn": 6680,
      "pÃ©rer": 6681,
      "Ã´ne": 6682,
      "Ġappu": 6683,
      "tination": 6684,
      "uez": 6685,
      "ournis": 6686,
      "Ġvieux": 6687,
      "Ġprofil": 6688,
      "Ġtravaille": 6689,
      "Ã©taire": 6690,
      "ĠÃ©pous": 6691,
      "ignon": 6692,
      "Ġaffi": 6693,
      "Ġcontribution": 6694,
      "ĠlÃ©gers": 6695,
      "Ġtendance": 6696,
      "Ġstyles": 6697,
      "Ġtensions": 6698,
      "ĠÃ©tudiants": 6699,
      "Ġsynonymes": 6700,
      "ĠdÃ©cida": 6701,
      "Ġoccident": 6702,
      "exploitation": 6703,
      "ĠDÃ©guster": 6704,
      "Ġbrocoli": 6705,
      "organisation": 6706,
      "Ġlecteurs": 6707,
      "ĠterminÃ©e": 6708,
      "ĠNoÃ«l": 6709,
      "Ġmurm": 6710,
      "Ġdauphins": 6711,
      "Ġbolognaise": 6712,
      "hrenheit": 6713,
      "mas": 6714,
      "ÂĢ": 6715,
      "Ġzon": 6716,
      "Ã©va": 6717,
      "Ġdevoir": 6718,
      "Ġsandwich": 6719,
      "tible": 6720,
      "ini": 6721,
      "Ġaqu": 6722,
      "Ġtent": 6723,
      "Ġball": 6724,
      "ĠbÃ¢ti": 6725,
      "tagon": 6726,
      "ĠrÃ©vÃ©": 6727,
      "ĠrÃ©per": 6728,
      "ĠrÃ©servation": 6729,
      "ĠrÃ©action": 6730,
      "ĠdÃ©bu": 6731,
      "ĠLyon": 6732,
      "mazon": 6733,
      "ĠSy": 6734,
      "ĠMan": 6735,
      "Ġcum": 6736,
      "Ġcomposition": 6737,
      "Ġsupport": 6738,
      "Ġdivis": 6739,
      "Ġpages": 6740,
      "vantage": 6741,
      "tens": 6742,
      "Ġcourantes": 6743,
      "Ġrayons": 6744,
      "Åĵur": 6745,
      "Ġappris": 6746,
      "ĠcarriÃ¨re": 6747,
      "ventions": 6748,
      "iditÃ©": 6749,
      "Ġparadis": 6750,
      "Ġterrain": 6751,
      "Ġhuit": 6752,
      "Ġgare": 6753,
      "Ġvoitures": 6754,
      "Ġculturel": 6755,
      "ĠgÃ©nÃ©tique": 6756,
      "Ġrapides": 6757,
      "ĠÃ©volu": 6758,
      "EnumÃ¨re": 6759,
      "odor": 6760,
      "ĠcomposÃ©e": 6761,
      "Ġcellulaire": 6762,
      "ormir": 6763,
      "Ġphilosophique": 6764,
      "ĠMadame": 6765,
      "Ġforts": 6766,
      "Ġveillant": 6767,
      "Ġhumide": 6768,
      "Ġchlorop": 6769,
      "riculture": 6770,
      "ĠcomplÃ¨tement": 6771,
      "Ġsensibiliser": 6772,
      "Ġbouteille": 6773,
      "ĠViande": 6774,
      "Ġspor": 6775,
      "ĠmammifÃ¨res": 6776,
      "ĠÃ©duca": 6777,
      "ffectue": 6778,
      "Ġsteak": 6779,
      "Ġconsommateurs": 6780,
      "ĠrÃ©silience": 6781,
      "VÃ©rifie": 6782,
      "Ġzones": 6783,
      "65": 6784,
      "Cristo": 6785,
      "Harry": 6786,
      "ative": 6787,
      "fas": 6788,
      "Ġdort": 6789,
      "Ġdangere": 6790,
      "ĠcÃ¢": 6791,
      "Ġcuite": 6792,
      "Ġsinc": 6793,
      "Ġdesc": 6794,
      "Ġdesserts": 6795,
      "Ġvar": 6796,
      "mentÃ©": 6797,
      "lition": 6798,
      "Ġdue": 6799,
      "Ġgl": 6800,
      "Ġsurvi": 6801,
      "olie": 6802,
      "Ġrires": 6803,
      "osÃ©": 6804,
      "Ġcab": 6805,
      "Ġcube": 6806,
      "Ġmains": 6807,
      "Ġpotager": 6808,
      "ĠJack": 6809,
      "Ġliv": 6810,
      "lÃ©ch": 6811,
      "Ġrayon": 6812,
      "Ġimpa": 6813,
      "ĠVÃªtements": 6814,
      "gestion": 6815,
      "Ġplais": 6816,
      "ĠrÃ©sistance": 6817,
      "verest": 6818,
      "Ġvieille": 6819,
      "Ġfonctions": 6820,
      "Ġatte": 6821,
      "Ġsauvage": 6822,
      "Ã©tend": 6823,
      "ĠnÃ©fas": 6824,
      "apprendre": 6825,
      "ĠdÃ©part": 6826,
      "hÃ©ros": 6827,
      "ĠÃ©numÃ¨re": 6828,
      "ĠtÃ©lÃ©vision": 6829,
      "ĠPrÃ©parez": 6830,
      "Ġquotidiennes": 6831,
      "Ġhistoires": 6832,
      "Ġmagie": 6833,
      "ĠInclus": 6834,
      "Ġtoile": 6835,
      "ĠappropriÃ©s": 6836,
      "Ġstatis": 6837,
      "ĠrÃ©paration": 6838,
      "Ġintrodu": 6839,
      "Ġ1789": 6840,
      "Ġpieds": 6841,
      "ĠprÃ©vu": 6842,
      "Ġinfluence": 6843,
      "Ġmuffins": 6844,
      "Ġlongueurs": 6845,
      "Ġdirectement": 6846,
      "Ġtotalitaire": 6847,
      "ĠdÃ©signe": 6848,
      "Ġaugmenter": 6849,
      "Ġsurveillance": 6850,
      "Ġlingu": 6851,
      "bullition": 6852,
      "ĠCrÃ¨me": 6853,
      "ĠbrouillÃ©s": 6854,
      "mÃ¨tres": 6855,
      "Ġpiston": 6856,
      "Ġsagesse": 6857,
      "Effectue": 6858,
      "II": 6859,
      "Qui": 6860,
      "Sa": 6861,
      "ides": 6862,
      "pÃ©e": 6863,
      "Ġpel": 6864,
      "Ġdevez": 6865,
      "ouse": 6866,
      "ars": 6867,
      "Ġbiscuits": 6868,
      "chette": 6869,
      "Ġgam": 6870,
      "Ġremb": 6871,
      "ĠPrenez": 6872,
      "ĠCal": 6873,
      "Ġautant": 6874,
      "Ġronde": 6875,
      "ĠDonne": 6876,
      "Ġcuits": 6877,
      "Ġcomprom": 6878,
      "Ã©cule": 6879,
      "ĠRue": 6880,
      "Ġtrajet": 6881,
      "ĠTols": 6882,
      "ĠVotre": 6883,
      "Ġanaly": 6884,
      "Ġdiffusion": 6885,
      "abeth": 6886,
      "ĠcrÃ©Ã©e": 6887,
      "Ġesp": 6888,
      "licitÃ©": 6889,
      "Ġdiscri": 6890,
      "Ġexpliquer": 6891,
      "Ġatmosph": 6892,
      "ĠÃ©gal": 6893,
      "Ġconfigurer": 6894,
      "Ġparagraph": 6895,
      "Ġbasmati": 6896,
      "Ġromans": 6897,
      "Ġwith": 6898,
      "objectif": 6899,
      "inclure": 6900,
      "ĠcaractÃ©rise": 6901,
      "Ġenvironnemental": 6902,
      "Ġparfois": 6903,
      "Ġplacez": 6904,
      "ĠglaÃ§ons": 6905,
      "ĠdÃ©mont": 6906,
      "ĠPays": 6907,
      "Ġfrag": 6908,
      "ĠMuseum": 6909,
      "Ġpotentiels": 6910,
      "Ġatteint": 6911,
      "ĠChoisissez": 6912,
      "Ġdisposer": 6913,
      "curitÃ©": 6914,
      "Ġvisiteurs": 6915,
      "ĠPhili": 6916,
      "Ġmajestue": 6917,
      "touf": 6918,
      "Ġlumineuse": 6919,
      "ĠemployÃ©s": 6920,
      "Ġcombinaison": 6921,
      "ĠÃ©thiques": 6922,
      "ĠtÃ©lÃ©visÃ©e": 6923,
      "Ġtortue": 6924,
      "Ġvaisselle": 6925,
      "ĠmÃ©dicaments": 6926,
      "Ġchloroplas": 6927,
      "79": 6928,
      "Fi": 6929,
      "RomÃ©o": 6930,
      "Utilis": 6931,
      "lys": 6932,
      "ling": 6933,
      "lestes": 6934,
      "mire": 6935,
      "ronter": 6936,
      "trÃ©e": 6937,
      "var": 6938,
      "vante": 6939,
      "yante": 6940,
      "Ġurg": 6941,
      "Ã©mo": 6942,
      "etÃ©": 6943,
      "arr": 6944,
      "aritÃ©": 6945,
      "ories": 6946,
      "Ġvoud": 6947,
      "Ġbic": 6948,
      "lien": 6949,
      "taire": 6950,
      "Ġchou": 6951,
      "siÃ¨re": 6952,
      "ouss": 6953,
      "ĠAp": 6954,
      "ĠAfrique": 6955,
      "ĠprÃ©nom": 6956,
      "ĠprÃ©visions": 6957,
      "ĠcomplÃ©ment": 6958,
      "Ã©rit": 6959,
      "ĠRet": 6960,
      "ĠTon": 6961,
      "Ġsix": 6962,
      "ĠBr": 6963,
      "ĠBel": 6964,
      "ĠBeurre": 6965,
      "Ġcourir": 6966,
      "Ġthym": 6967,
      "abulaire": 6968,
      "ĠcrÃ©ature": 6969,
      "imm": 6970,
      "ĠdonnÃ©s": 6971,
      "ĠPark": 6972,
      "ĠmarquÃ©e": 6973,
      "Ġatt": 6974,
      "ĠHa": 6975,
      "ĠHer": 6976,
      "pice": 6977,
      "ĠcÃ©lestes": 6978,
      "Ġservez": 6979,
      "Ġvivent": 6980,
      "Inde": 6981,
      "Invente": 6982,
      "ĠprÃ©sents": 6983,
      "cÃ©dent": 6984,
      "Ġterminer": 6985,
      "veloppe": 6986,
      "Ġculinaire": 6987,
      "Ġbiais": 6988,
      "Ġinterval": 6989,
      "Ġgagner": 6990,
      "agriculture": 6991,
      "oindre": 6992,
      "Compare": 6993,
      "Ġhausse": 6994,
      "Ġpermettent": 6995,
      "drogÃ¨ne": 6996,
      "ĠcaractÃ©risÃ©e": 6997,
      "Ġcontributions": 6998,
      "Ġmilliers": 6999,
      "ĠrÃ©alisation": 7000,
      "Ġpublicitaire": 7001,
      "Ġchercher": 7002,
      "ĠrÃ©volutionnaire": 7003,
      "Ġopin": 7004,
      "ĠCuis": 7005,
      "Ġsavoureux": 7006,
      "Ġjaunes": 7007,
      "Ġinoubliables": 7008,
      "Ġintense": 7009,
      "Ġperformance": 7010,
      "ĠmystÃ©rieuse": 7011,
      "ĠconsidÃ©rÃ©": 7012,
      "Ġarchitecture": 7013,
      "Ġapaisante": 7014,
      "Ġamateurs": 7015,
      "ĠsupplÃ©mentaires": 7016,
      "Ġvocabulaire": 7017,
      "Ġgarantir": 7018,
      "ĠMexique": 7019,
      "ĠfenÃªtres": 7020,
      "artiste": 7021,
      "ĠPoisson": 7022,
      "Ġachats": 7023,
      "ĠÃīvitez": 7024,
      "ĠÃ©olienne": 7025,
      "Ġauthen": 7026,
      "Ġgroupes": 7027,
      "ĠÃ©poustouf": 7028,
      "ĠnÃ©fastes": 7029,
      "ĠTolstoÃ¯": 7030,
      "23": 7031,
      "Ad": 7032,
      "Modi": 7033,
      "ajou": 7034,
      "her": 7035,
      "iÃ©": 7036,
      "lette": 7037,
      "mettre": 7038,
      "wa": 7039,
      "yme": 7040,
      "Ã©ration": 7041,
      "ĠpÃ©n": 7042,
      "rah": 7043,
      "Ġfaible": 7044,
      "llemand": 7045,
      "Ġcup": 7046,
      "Ġsains": 7047,
      "ĠRomÃ©o": 7048,
      "lois": 7049,
      "ander": 7050,
      "ondation": 7051,
      "oyer": 7052,
      "Ġexpression": 7053,
      "Ġprint": 7054,
      "Ġassi": 7055,
      "ĠcoÃ»ts": 7056,
      "angers": 7057,
      "ĠadÃ©qu": 7058,
      "Ġtranspar": 7059,
      "Ġlongues": 7060,
      "Ġofficielle": 7061,
      "ĠamÃ©liore": 7062,
      "objet": 7063,
      "ĠÃ©conomie": 7064,
      "Ġpeine": 7065,
      "ĠtÃ©lÃ©phones": 7066,
      "pÃ¨ce": 7067,
      "ĠrÃ©comp": 7068,
      "Ġcontribuant": 7069,
      "Ġordinateurs": 7070,
      "Ġlogiciels": 7071,
      "Ġchoisissez": 7072,
      "Ġvolcan": 7073,
      "ĠFahrenheit": 7074,
      "ĠfraÃ®chement": 7075,
      "ĠÃ¢mes": 7076,
      "Ġsentiments": 7077,
      "ĠstabilitÃ©": 7078,
      "Ġarguments": 7079,
      "Ġdomes": 7080,
      "Ġgouvernements": 7081,
      "ĠIncorporez": 7082,
      "ĠappelÃ©": 7083,
      "Ġsports": 7084,
      "Ġengagement": 7085,
      "Ġnatation": 7086,
      "Ġmensuelles": 7087,
      "Ġplateformes": 7088,
      "Ġvaccination": 7089,
      "Ġchloroph": 7090,
      "Ġdistinctes": 7091,
      "Ġjaponaise": 7092,
      "ĠmÃ»res": 7093,
      "ĠdÃ©couvrit": 7094,
      "identitÃ©": 7095,
      "Ġtristes": 7096,
      "ĠRÃ©pÃ©tez": 7097,
      "ĠRÃ©ser": 7098,
      "Ġastuces": 7099,
      "Ġexcellent": 7100,
      "Ġchemise": 7101,
      "cussions": 7102,
      "absurditÃ©": 7103,
      "Ġchloroplastes": 7104,
      "Empire": 7105,
      "Pers": 7106,
      "cour": 7107,
      "vise": 7108,
      "Ġdanger": 7109,
      "Ġpen": 7110,
      "Ġpau": 7111,
      "Ġenj": 7112,
      "menter": 7113,
      "ĠÃ©vo": 7114,
      "Ġbruit": 7115,
      "Ġgren": 7116,
      "Ġauras": 7117,
      "ĠSui": 7118,
      "range": 7119,
      "Ġoiseau": 7120,
      "Ġsujets": 7121,
      "ĠpoÃ©tique": 7122,
      "Ġmobil": 7123,
      "RÃ©Ã©cris": 7124,
      "Ġaccep": 7125,
      "traction": 7126,
      "igme": 7127,
      "Ġavril": 7128,
      "Ġbiologique": 7129,
      "Ġroses": 7130,
      "Ġtache": 7131,
      "Ġcalories": 7132,
      "Ġ190": 7133,
      "Ġinspi": 7134,
      "Ġlongtemps": 7135,
      "Ġaffir": 7136,
      "ĠDessert": 7137,
      "Ġmagiques": 7138,
      "ĠdÃ©mouler": 7139,
      "ĠdÃ©mÃ©nagement": 7140,
      "ĠnÃ©gatives": 7141,
      "Ġtenue": 7142,
      "ĠextrÃªme": 7143,
      "Ġplanification": 7144,
      "ĠJavert": 7145,
      "Ġtransformer": 7146,
      "Ġjaune": 7147,
      "ĠÃīgoutter": 7148,
      "Ġcorriger": 7149,
      "ĠSaupoudrez": 7150,
      "Ġargumentatif": 7151,
      "ĠÃ©lÃ©gant": 7152,
      "ĠÃ©lÃ©gante": 7153,
      "Ġexamen": 7154,
      "Ġmajestueux": 7155,
      "habitants": 7156,
      "ĠÃ©ternel": 7157,
      "ĠÃ©toilÃ©": 7158,
      "Ġpropagation": 7159,
      "Ġcryptom": 7160,
      "Choisis": 7161,
      "Ġnocturne": 7162,
      "Modifie": 7163,
      "Allemagne": 7164,
      "beurre": 7165,
      "ciel": 7166,
      "king": 7167,
      "ruite": 7168,
      "Ġant": 7169,
      "Ġul": 7170,
      "Ġdangers": 7171,
      "Ã©b": 7172,
      "oules": 7173,
      "rales": 7174,
      "rables": 7175,
      "Ġench": 7176,
      "Ġbillets": 7177,
      "tait": 7178,
      "Ġgris": 7179,
      "Ġrecevoir": 7180,
      "ĠCSS": 7181,
      "Ġprotagon": 7182,
      "cesse": 7183,
      "Ġfaveur": 7184,
      "termine": 7185,
      "Ġsecret": 7186,
      "Ġsept": 7187,
      "ĠDum": 7188,
      "Ġ35": 7189,
      "illons": 7190,
      "Ġoubli": 7191,
      "ĠprÃªte": 7192,
      "Ġforment": 7193,
      "ĠdÃ©clen": 7194,
      "lÃ¨ves": 7195,
      "Ġsoula": 7196,
      "ĠallÃ©": 7197,
      "aps": 7198,
      "Ġconcurr": 7199,
      "Ġparas": 7200,
      "ĠÃītalez": 7201,
      "Ġfinit": 7202,
      "Ġtechnologique": 7203,
      "appro": 7204,
      "Ġ2022": 7205,
      "Ġrobe": 7206,
      "ĠcÃ´tiÃ¨res": 7207,
      "Compose": 7208,
      "ĠrÃ©col": 7209,
      "Ġcapitales": 7210,
      "Ġfournis": 7211,
      "Ġnote": 7212,
      "Ġautonom": 7213,
      "ĠlÃ©gende": 7214,
      "ĠdÃ©gustez": 7215,
      "Ġretrouve": 7216,
      "hip": 7217,
      "Ġoptim": 7218,
      "ĠcoupÃ©s": 7219,
      "view": 7220,
      "Ġbarres": 7221,
      "ĠprÃ©vue": 7222,
      "irage": 7223,
      "Ġlecteur": 7224,
      "Ġhiver": 7225,
      "ĠHarry": 7226,
      "touille": 7227,
      "ĠbÃ©nÃ©fique": 7228,
      "Ġarroser": 7229,
      "ertise": 7230,
      "Ġincontournable": 7231,
      "Ajoute": 7232,
      "ĠBoissons": 7233,
      "ĠrÃ©percussions": 7234,
      "Ġparagraphes": 7235,
      "Ġvoudrais": 7236,
      "Personnage": 7237,
      "Comm": 7238,
      "amp": 7239,
      "ates": 7240,
      "cents": 7241,
      "dd": 7242,
      "Ġpec": 7243,
      "Ġpompes": 7244,
      "tiÃ©": 7245,
      "Ġfre": 7246,
      "Ġfron": 7247,
      "Ġdestruction": 7248,
      "ily": 7249,
      "orino": 7250,
      "Ġvillage": 7251,
      "laration": 7252,
      "Ġconserve": 7253,
      "Ġremar": 7254,
      "ald": 7255,
      "ĠsurrÃ©": 7256,
      "ĠPap": 7257,
      "Ġparmi": 7258,
      "Ġpropice": 7259,
      "Ġhypoth": 7260,
      "Ġif": 7261,
      "ambiance": 7262,
      "ĠÃ©tagÃ¨res": 7263,
      "aitez": 7264,
      "Ġforte": 7265,
      "ĠNapolÃ©on": 7266,
      "Ġpertes": 7267,
      "triques": 7268,
      "triche": 7269,
      "ĠOp": 7270,
      "extrÃ©mitÃ©": 7271,
      "Ġboucle": 7272,
      "Ġorb": 7273,
      "Ġadjectifs": 7274,
      "Ġtransactions": 7275,
      "Ġverse": 7276,
      "ĠthÃ©orÃ¨me": 7277,
      "Ġcarburant": 7278,
      "Ġremplacer": 7279,
      "Ġscin": 7280,
      "pareil": 7281,
      "ĠvariÃ©es": 7282,
      "ĠprÃ©cise": 7283,
      "Ġmajeures": 7284,
      "Ġsensation": 7285,
      "ĠInclu": 7286,
      "ĠcrÃ©atif": 7287,
      "ĠÃ©clai": 7288,
      "Ġpouvoirs": 7289,
      "Ġpasseport": 7290,
      "Ġanglaise": 7291,
      "ĠreprÃ©senter": 7292,
      "ĠresponsabilitÃ©": 7293,
      "ĠÃ©levÃ©e": 7294,
      "ĠAustralie": 7295,
      "ĠdÃ©sirÃ©": 7296,
      "Ġmajeurs": 7297,
      "ĠdÃ©vastatrices": 7298,
      "Ġaccords": 7299,
      "Ġpsychologie": 7300,
      "ĠArrosez": 7301,
      "ĠcontrÃ´ler": 7302,
      "ĠÃ©mincÃ©": 7303,
      "Ġparticipants": 7304,
      "ĠsupplÃ©mentaire": 7305,
      "Ġ7500": 7306,
      "ĠPrÃ©jugÃ©s": 7307,
      "Ġcitoyens": 7308,
      "Ġconvivi": 7309,
      "ĠLouis": 7310,
      "Ġmagasin": 7311,
      "ĠprocÃ©dure": 7312,
      "Asie": 7313,
      "ĠMuraille": 7314,
      "Ġsubstitu": 7315,
      "Guerre": 7316,
      "ĠDelhi": 7317,
      "Cite": 7318,
      "Planif": 7319,
      "cÃ©es": 7320,
      "dÃ©e": 7321,
      "gi": 7322,
      "orÃ©": 7323,
      "pendance": 7324,
      "tiles": 7325,
      "rÃ©nitÃ©": 7326,
      "Ġfruit": 7327,
      "Ġfeta": 7328,
      "Ġpourras": 7329,
      "ĠÃ©tant": 7330,
      "ĠÃ©las": 7331,
      "ĠÃ©tirements": 7332,
      "ĠÃ©bullition": 7333,
      "roÃ¯": 7334,
      "chÃ©es": 7335,
      "rika": 7336,
      "ĠreÃ§": 7337,
      "ĠPort": 7338,
      "ĠActivitÃ©": 7339,
      "Ġfaibles": 7340,
      "Ã¢me": 7341,
      "ĠMande": 7342,
      "duc": 7343,
      "accep": 7344,
      "gnon": 7345,
      "Ġtraiter": 7346,
      "Ġimpos": 7347,
      "Ġentretenir": 7348,
      "Ġcardia": 7349,
      "Ġesca": 7350,
      "Ġpercu": 7351,
      "Ġjuste": 7352,
      "Ġeffra": 7353,
      "Ġprincesse": 7354,
      "isement": 7355,
      "Ġincorpo": 7356,
      "ergies": 7357,
      "ings": 7358,
      "Ġdouleur": 7359,
      "pecteur": 7360,
      "Ġgriller": 7361,
      "Ġrechercher": 7362,
      "Ġtrier": 7363,
      "Ġaffronter": 7364,
      "Ġpoly": 7365,
      "Ġplastiques": 7366,
      "ĠreprÃ©sentant": 7367,
      "Ġjuin": 7368,
      "Ġconstruite": 7369,
      "ĠhachÃ©es": 7370,
      "Ġcontras": 7371,
      "ĠcausÃ©": 7372,
      "Ġinternet": 7373,
      "exploration": 7374,
      "Ġpartout": 7375,
      "Ġdisponible": 7376,
      "ĠCurry": 7377,
      "Ġmusicale": 7378,
      "ĠindÃ©pend": 7379,
      "Marie": 7380,
      "ĠPlanifier": 7381,
      "ĠGarnir": 7382,
      "Ġrespira": 7383,
      "Ġarchitectu": 7384,
      "Espagne": 7385,
      "âĢļÂ¬": 7386,
      "Ġintervalles": 7387,
      "Ġsoulager": 7388,
      "Ġpecorino": 7389,
      "48": 7390,
      "Italie": 7391,
      "Vous": 7392,
      "\\'": 7393,
      "har": 7394,
      "los": 7395,
      "nis": 7396,
      "Ġdys": 7397,
      "inage": 7398,
      "itent": 7399,
      "Ġfris": 7400,
      "ĠÃ©lÃ¨ves": 7401,
      "ational": 7402,
      "Ġgard": 7403,
      "alcool": 7404,
      "Ġel": 7405,
      "Ġinuti": 7406,
      "sifs": 7407,
      "olli": 7408,
      "endrier": 7409,
      "ĠSam": 7410,
      "ĠSto": 7411,
      "ĠmÃ©tro": 7412,
      "ĠprÃ©vention": 7413,
      "Ġsoja": 7414,
      "ocats": 7415,
      "ĠFe": 7416,
      "inspiration": 7417,
      "ĠtempÃªte": 7418,
      "omages": 7419,
      "ĠsoulÃ¨ve": 7420,
      "ĠprÃ©parÃ©": 7421,
      "Ġconsac": 7422,
      "Ġvivait": 7423,
      "ĠsÃ©jour": 7424,
      "ĠsÃ©rÃ©nitÃ©": 7425,
      "olement": 7426,
      "ĠÃītablir": 7427,
      "ĠdÃ©pla": 7428,
      "Ã©lÃ©vation": 7429,
      "Ġcheval": 7430,
      "itae": 7431,
      "asso": 7432,
      "Ġenfourner": 7433,
      "ops": 7434,
      "outte": 7435,
      "ĠgÃ©nÃ©ration": 7436,
      "ĠrencontrÃ©": 7437,
      "Ġrencontrer": 7438,
      "Ġchamps": 7439,
      "Ġpaprika": 7440,
      "Ġsorcier": 7441,
      "ĠPlat": 7442,
      "ĠfinanciÃ¨re": 7443,
      "ĠGrand": 7444,
      "ĠdisponibilitÃ©": 7445,
      "ĠFormer": 7446,
      "Ġgrecque": 7447,
      "Ġperspective": 7448,
      "Ġspatiale": 7449,
      "Ġrespectueux": 7450,
      "Ġjaponais": 7451,
      "ĠinfluencÃ©": 7452,
      "ĠchangÃ©": 7453,
      "Ġapprofond": 7454,
      "Ġchaleureuse": 7455,
      "Ġchevalier": 7456,
      "Ġplaisir": 7457,
      "Ġgamme": 7458,
      "Ġchlorophy": 7459,
      "ĠMandela": 7460,
      "40": 7461,
      "KEA": 7462,
      "ON": 7463,
      "Oui": 7464,
      "bora": 7465,
      "cure": 7466,
      "ctes": 7467,
      "tar": 7468,
      "Â»": 7469,
      "Ġsent": 7470,
      "tiens": 7471,
      "Ġaima": 7472,
      "Ġastron": 7473,
      "chu": 7474,
      "ĠrÃ©ve": 7475,
      "ĠrÃ©pu": 7476,
      "cide": 7477,
      "ership": 7478,
      "ĠprÃ©voir": 7479,
      "ĠprÃ©ala": 7480,
      "ĠprÃ©cÃ©d": 7481,
      "Ġmorale": 7482,
      "Ġpata": 7483,
      "ĠVincent": 7484,
      "ĠnommÃ©e": 7485,
      "Ġmarines": 7486,
      "ification": 7487,
      "ĠChili": 7488,
      "Ġconstamment": 7489,
      "entiel": 7490,
      "Ġattire": 7491,
      "former": 7492,
      "pide": 7493,
      "ming": 7494,
      "Ġbouquet": 7495,
      "rones": 7496,
      "lettes": 7497,
      "Ġfinal": 7498,
      "ĠdÃ©veloppÃ©e": 7499,
      "ĠdÃ©taillÃ©": 7500,
      "ĠdÃ©licieuses": 7501,
      "Ġmoules": 7502,
      "Ġprofessionnels": 7503,
      "ĠaccÃ¨s": 7504,
      "Ġcitrou": 7505,
      "ĠÃ©tro": 7506,
      "Ġrencontra": 7507,
      "Ġhabitat": 7508,
      "ĠreconnaÃ®tre": 7509,
      "ĠProf": 7510,
      "Ġrelaxante": 7511,
      "ĠNewton": 7512,
      "Ġlasagne": 7513,
      "Ġconduire": 7514,
      "Ġrecycler": 7515,
      "ĠLibertÃ©": 7516,
      "Ġexprime": 7517,
      "Ġconsid": 7518,
      "ĠJames": 7519,
      "ĠopportunitÃ©": 7520,
      "ĠfinanciÃ¨res": 7521,
      "Ġamusantes": 7522,
      "Ġomni": 7523,
      "Ġsommets": 7524,
      "DÃ©veloppe": 7525,
      "ĠcolorÃ©s": 7526,
      "ĠamÃ©ricain": 7527,
      "Ġexotique": 7528,
      "Ġnational": 7529,
      "riculum": 7530,
      "Ġmutuellement": 7531,
      "ĠcomplÃ¨tes": 7532,
      "ĠÃ©ternelle": 7533,
      "ĠRetirer": 7534,
      "intÃ©rÃªt": 7535,
      "Ġsaupoudrer": 7536,
      "ĠpÃ¢tisserie": 7537,
      "Ġpyramides": 7538,
      "Ġconsulter": 7539,
      "Ġcroustillante": 7540,
      "obscuritÃ©": 7541,
      "Ã©checs": 7542,
      "Ġmoelleux": 7543,
      "ĠPhilip": 7544,
      "ĠDumas": 7545,
      "75": 7546,
      "Bien": 7547,
      "Fournis": 7548,
      "Su": 7549,
      "gie": 7550,
      "hÃ´tel": 7551,
      "igu": 7552,
      "kin": 7553,
      "liste": 7554,
      "ĠpÃªche": 7555,
      "Ġdevrez": 7556,
      "quÃ©es": 7557,
      "Ġare": 7558,
      "rase": 7559,
      "itr": 7560,
      "Ġtab": 7561,
      "Ġtension": 7562,
      "Ġfit": 7563,
      "Ġvitae": 7564,
      "ĠÃ©vent": 7565,
      "change": 7566,
      "rivez": 7567,
      "alys": 7568,
      "ĠdÃ©vou": 7569,
      "ĠPÃ©": 7570,
      "Ġparten": 7571,
      "ĠLis": 7572,
      "Ġprot": 7573,
      "ĠMes": 7574,
      "ĠopÃ©": 7575,
      "Ġmax": 7576,
      "ĠRest": 7577,
      "umulus": 7578,
      "ĠliÃ©es": 7579,
      "inscrire": 7580,
      "ĠBi": 7581,
      "ĠBur": 7582,
      "stroph": 7583,
      "Ġraff": 7584,
      "Ġimpacts": 7585,
      "ther": 7586,
      "emplacement": 7587,
      "Ġsoule": 7588,
      "Ġdisposez": 7589,
      "Ġalli": 7590,
      "Ġalbum": 7591,
      "Ġattend": 7592,
      "Ġnouvel": 7593,
      "Ġcorpo": 7594,
      "Ġreprodu": 7595,
      "riel": 7596,
      "ingou": 7597,
      "Ġcolon": 7598,
      "Ġpreuves": 7599,
      "ĠtroisiÃ¨me": 7600,
      "ĠgÃ©nÃ©rales": 7601,
      "Ġformant": 7602,
      "Ġaccroche": 7603,
      "Ġremplir": 7604,
      "ChÃ¨re": 7605,
      "ĠrÃ©flÃ©ch": 7606,
      "Ġvali": 7607,
      "Ġlitre": 7608,
      "ĠtrÃ©sors": 7609,
      "Ġjambes": 7610,
      "ĠintÃ©ressÃ©": 7611,
      "Ġbattus": 7612,
      "Ġbatterie": 7613,
      "ĠvidÃ©": 7614,
      "Ġoriginal": 7615,
      "ĠdÃ©terminer": 7616,
      "aourts": 7617,
      "Recherche": 7618,
      "Ġvisuelle": 7619,
      "Ġcruciale": 7620,
      "abilitÃ©s": 7621,
      "Ġprenez": 7622,
      "Ġfemmes": 7623,
      "Ġjazz": 7624,
      "Ġdirect": 7625,
      "Ġaccompagne": 7626,
      "Ġdavantage": 7627,
      "Ġfromages": 7628,
      "sifie": 7629,
      "ĠcÃ©rÃ©monie": 7630,
      "ylist": 7631,
      "Ġusage": 7632,
      "Ġsensibilisation": 7633,
      "Ġpeuple": 7634,
      "Ġbouteilles": 7635,
      "Ġenneig": 7636,
      "Ġsouhaitez": 7637,
      "Ġampoules": 7638,
      "Ġtombe": 7639,
      "Ġexceptionnelle": 7640,
      "Ġcristallines": 7641,
      "Ġcrevaison": 7642,
      "Ġcourbure": 7643,
      "ĠCrÃ©ez": 7644,
      "Ġcardiovasculaires": 7645,
      "Semaine": 7646,
      "ĠlaissÃ©": 7647,
      "ĠclartÃ©": 7648,
      "Ġprovenant": 7649,
      "Ġoccidentale": 7650,
      "Ġsurvivre": 7651,
      "Ġrembourse": 7652,
      "ĠprÃ©alable": 7653,
      "13": 7654,
      "Bas": 7655,
      "ED": 7656,
      "Trois": 7657,
      "hai": 7658,
      "ku": 7659,
      "mation": 7660,
      "tout": 7661,
      "ww": 7662,
      "Â«": 7663,
      "Ġ%": 7664,
      "Ġlour": 7665,
      "Ġpince": 7666,
      "Ġcord": 7667,
      "union": 7668,
      "entrÃ©e": 7669,
      "Ġentiers": 7670,
      "aud": 7671,
      "ĠconÃ§u": 7672,
      "Ġconvient": 7673,
      "ĠrÃ©par": 7674,
      "ĠPas": 7675,
      "ĠLo": 7676,
      "Ġhant": 7677,
      "euillez": 7678,
      "ĠSous": 7679,
      "ater": 7680,
      "atom": 7681,
      "ico": 7682,
      "ĠDeux": 7683,
      "ĠIdentif": 7684,
      "ĠIKEA": 7685,
      "Ġdivertis": 7686,
      "Ġdipl": 7687,
      "ĠFranÃ§ais": 7688,
      "ĠtragÃ©": 7689,
      "Ġmotifs": 7690,
      "Ġpaie": 7691,
      "oise": 7692,
      "abri": 7693,
      "Ã´me": 7694,
      "ĠNuit": 7695,
      "thique": 7696,
      "trice": 7697,
      "Ġmarquant": 7698,
      "Ġmargherita": 7699,
      "entielle": 7700,
      "ĠOui": 7701,
      "exc": 7702,
      "Ġcoh": 7703,
      "ĠparamÃ¨tres": 7704,
      "mian": 7705,
      "Ã©tat": 7706,
      "hemian": 7707,
      "Ġbijou": 7708,
      "Ġverd": 7709,
      "ceps": 7710,
      "ĠthÃ©ories": 7711,
      "igner": 7712,
      "Ġsciences": 7713,
      "ĠconseillÃ©": 7714,
      "ĠvÃ©rifie": 7715,
      "ĠrÃ©centes": 7716,
      "ĠÃ©tend": 7717,
      "vores": 7718,
      "ĠcontribuÃ©": 7719,
      "ĠAntoine": 7720,
      "ĠArt": 7721,
      "Ġartiste": 7722,
      "Ġjardins": 7723,
      "Ġremonte": 7724,
      "Ġretourner": 7725,
      "ĠpublicitÃ©": 7726,
      "Ġcurriculum": 7727,
      "ĠÃ©lectricitÃ©": 7728,
      "anciale": 7729,
      "ĠmoitiÃ©": 7730,
      "ĠcoupÃ©e": 7731,
      "ĠXVI": 7732,
      "Ġprogrammes": 7733,
      "ĠplongÃ©e": 7734,
      "ĠÃ©tudier": 7735,
      "Ġcharge": 7736,
      "Ġcirc": 7737,
      "Ġextrait": 7738,
      "activitÃ©s": 7739,
      "Ġidentifie": 7740,
      "PrÃ©nom": 7741,
      "ĠDisposez": 7742,
      "ĠDisposer": 7743,
      "Ġintelligence": 7744,
      "Ġbrown": 7745,
      "Ġretirez": 7746,
      "ĠÃ©mouv": 7747,
      "Ġcandidat": 7748,
      "Ġgrammaticalement": 7749,
      "Ġadopter": 7750,
      "ĠeuropÃ©enne": 7751,
      "ĠBovar": 7752,
      "ĠapprÃ©ciÃ©": 7753,
      "ĠpÃ©ril": 7754,
      "Ġfestival": 7755,
      "ĠTrouver": 7756,
      "Ġadultes": 7757,
      "donÃ©sie": 7758,
      "ĠPicasso": 7759,
      "Ġfatigue": 7760,
      "Ġcaritatif": 7761,
      "ĠRhaps": 7762,
      "ĠPromen": 7763,
      "Ġsavoureuse": 7764,
      "Ġrejoindre": 7765,
      "Ġvictoire": 7766,
      "Ġadolescents": 7767,
      "Ġblanchisse": 7768,
      "Ġsalutations": 7769,
      "Ã©ritage": 7770,
      "Planifie": 7771,
      "Ġdysto": 7772,
      "ĠBovary": 7773,
      "ĠRhapsody": 7774,
      "Petit": 7775,
      "ael": 7776,
      "cou": 7777,
      "cte": 7778,
      "lÃł": 7779,
      "lets": 7780,
      "lissez": 7781,
      "na": 7782,
      "nie": 7783,
      "nÃ©e": 7784,
      "naires": 7785,
      "ster": 7786,
      "Ġ'": 7787,
      "Ġos": 7788,
      "Ġ____": 7789,
      "Ġdormir": 7790,
      "Ã©l": 7791,
      "ĠlinÃ©": 7792,
      "Ġloup": 7793,
      "Ġplier": 7794,
      "Ġpingou": 7795,
      "Ġsha": 7796,
      "ties": 7797,
      "Ġaur": 7798,
      "itre": 7799,
      "arbon": 7800,
      "Ġfine": 7801,
      "omas": 7802,
      "Ġenvir": 7803,
      "Ġenvo": 7804,
      "ĠÃ©volution": 7805,
      "ĠÃ©poque": 7806,
      "laient": 7807,
      "Ġbonnes": 7808,
      "Ġnord": 7809,
      "geant": 7810,
      "rions": 7811,
      "Ġcontent": 7812,
      "ĠdÃ©mar": 7813,
      "Ġjet": 7814,
      "Ġproposition": 7815,
      "simo": 7816,
      "cession": 7817,
      "ĠAg": 7818,
      "ĠAsimo": 7819,
      "Ġoeufs": 7820,
      "ĠDos": 7821,
      "actu": 7822,
      "Ġcata": 7823,
      "Ġsud": 7824,
      "Ġdivision": 7825,
      "Ġtravaux": 7826,
      "Ã©nus": 7827,
      "Ġrecue": 7828,
      "Ġprie": 7829,
      "Ġcourtes": 7830,
      "Ġradic": 7831,
      "ĠimprÃ©": 7832,
      "oyez": 7833,
      "Ġsoup": 7834,
      "Ġdisposition": 7835,
      "Ġneur": 7836,
      "Ġmanif": 7837,
      "aparte": 7838,
      "ĠÃ©quitable": 7839,
      "Ġavancer": 7840,
      "ĠÃ©gales": 7841,
      "Ġbiens": 7842,
      "Ġpierre": 7843,
      "Ġgras": 7844,
      "onomique": 7845,
      "Ġnuage": 7846,
      "Ġfourchette": 7847,
      "Ġ1889": 7848,
      "Ġcalendrier": 7849,
      "Ġconnaissance": 7850,
      "ĠjouÃ©": 7851,
      "ĠspÃ©cialis": 7852,
      "elson": 7853,
      "Ġculturelles": 7854,
      "ĠDÃ©p": 7855,
      "Ġscola": 7856,
      "Ġmerveille": 7857,
      "ĠrÃ©cit": 7858,
      "ĠrÃ©fÃ©rences": 7859,
      "ĠcaractÃ©risÃ©": 7860,
      "Ġconstruit": 7861,
      "Ġremise": 7862,
      "Ġcherchant": 7863,
      "Ġnourriss": 7864,
      "ĠsÃ©lectionnez": 7865,
      "Ġanciennes": 7866,
      "ĠSaumon": 7867,
      "Ġpleinement": 7868,
      "ĠMonta": 7869,
      "ĠBonaparte": 7870,
      "Ġsymbol": 7871,
      "ĠÃ©levÃ©es": 7872,
      "Ã©roport": 7873,
      "Ġinforma": 7874,
      "ĠThrones": 7875,
      "Ġjuillet": 7876,
      "Ġclairement": 7877,
      "Ġloisirs": 7878,
      "Ġbricola": 7879,
      "ĠÃīgypte": 7880,
      "Ġramolli": 7881,
      "ĠÃ©couter": 7882,
      "ĠaccÃ©der": 7883,
      "ĠpersonnalisÃ©": 7884,
      "Ġavion": 7885,
      "Ġfouet": 7886,
      "ĠBattre": 7887,
      "Ġproductif": 7888,
      "Ġleadership": 7889,
      "Ġatomique": 7890,
      "Ġblocs": 7891,
      "Ġphysicien": 7892,
      "ĠNettoyer": 7893,
      "Bohemian": 7894,
      "ĠJournÃ©e": 7895,
      "Ġstatistiques": 7896,
      "ĠRestaur": 7897,
      "arbonate": 7898,
      "ĠAsimov": 7899,
      "'t": 7900,
      "60": 7901,
      "Est": 7902,
      "cisses": 7903,
      "ker": 7904,
      "sh": 7905,
      "vs": 7906,
      "Â±": 7907,
      "Ġprises": 7908,
      "encer": 7909,
      "inv": 7910,
      "Ġail": 7911,
      "Ġachet": 7912,
      "urent": 7913,
      "arin": 7914,
      "antal": 7915,
      "Ġner": 7916,
      "diction": 7917,
      "ĠdÃ©j": 7918,
      "ĠCent": 7919,
      "ĠCarte": 7920,
      "Ġrhum": 7921,
      "Ġ28": 7922,
      "att": 7923,
      "onnements": 7924,
      "ĠexÃ©cu": 7925,
      "onstru": 7926,
      "rand": 7927,
      "ĠmatiÃ¨res": 7928,
      "Ġpolaires": 7929,
      "ĠpoÃ©sie": 7930,
      "ĠRoses": 7931,
      "Ã©nigme": 7932,
      "Ġprends": 7933,
      "Ġlibres": 7934,
      "inston": 7935,
      "inspecteur": 7936,
      "oiseau": 7937,
      "Ġarc": 7938,
      "ĠVan": 7939,
      "ĠVÃ©nus": 7940,
      "Ġtrous": 7941,
      "ablo": 7942,
      "Ġdispose": 7943,
      "Ġmarch": 7944,
      "rÃ©sent": 7945,
      "Ġconcerne": 7946,
      "Ġserp": 7947,
      "Ins": 7948,
      "anghai": 7949,
      "Ġfinance": 7950,
      "impressionn": 7951,
      "Ġnuances": 7952,
      "ĠWinston": 7953,
      "Ġpropor": 7954,
      "agore": 7955,
      "ĠdorÃ©es": 7956,
      "Ġconnus": 7957,
      "Ġjouent": 7958,
      "Ġ120": 7959,
      "Chers": 7960,
      "Ġguanciale": 7961,
      "Ġmiro": 7962,
      "Ġfournisse": 7963,
      "ĠArticles": 7964,
      "Ġdevin": 7965,
      "Ġcroissante": 7966,
      "Ġcompost": 7967,
      "Ġsortir": 7968,
      "ĠÃ¢me": 7969,
      "ĠÃ©clat": 7970,
      "onyme": 7971,
      "ĠsÃ©lectionner": 7972,
      "Ġpertinent": 7973,
      "ĠPacifique": 7974,
      "ĠBonjour": 7975,
      "Ġcirrus": 7976,
      "ĠJava": 7977,
      "ĠPlacer": 7978,
      "Ġinspirant": 7979,
      "Ġvirtu": 7980,
      "Ġvivants": 7981,
      "Ġdates": 7982,
      "ĠpassionnÃ©": 7983,
      "Ġaimerais": 7984,
      "Ġgrammaticales": 7985,
      "Ġfascinante": 7986,
      "ĠRemplissez": 7987,
      "ĠinterprÃ©": 7988,
      "habitat": 7989,
      "Ġluxe": 7990,
      "encour": 7991,
      "ĠÃ©toilÃ©e": 7992,
      "Ġconnecter": 7993,
      "ĠmÃ©nagers": 7994,
      "ĠCertains": 7995,
      "Demain": 7996,
      "Organise": 7997,
      "lipse": 7998,
      "Ġinfinie": 7999,
      "ĠrÃ©utilisables": 8000,
      "Ġcumulus": 8001,
      "Ġbicarbonate": 8002,
      "ĠHerbert": 8003,
      "ĠCuisine": 8004,
      "Ġtristesse": 8005,
      "Ġprotagoniste": 8006,
      "ĠActivitÃ©s": 8007,
      "Ġchlorophylle": 8008,
      "Ġcitrouille": 8009,
      "Ġmaximale": 8010,
      "ĠvidÃ©os": 8011,
      "Ġbricolage": 8012,
      "28": 8013,
      "Alexandre": 8014,
      "euses": 8015,
      "ition": 8016,
      "Ã©tiques": 8017,
      "ena": 8018,
      "ĠsÃ¨": 8019,
      "isÃ©s": 8020,
      "quitÃ©": 8021,
      "quare": 8022,
      "itan": 8023,
      "omÃ©n": 8024,
      "Ġvall": 8025,
      "Ġenregistre": 8026,
      "Ġblo": 8027,
      "Ġbru": 8028,
      "liz": 8029,
      "rifi": 8030,
      "Ġchances": 8031,
      "ĠrÃ©p": 8032,
      "ĠrÃ©vision": 8033,
      "Ġrelever": 8034,
      "Ġher": 8035,
      "Ġhier": 8036,
      "ĠEl": 8037,
      "ĠSant": 8038,
      "ĠmÃ©tal": 8039,
      "ĠprÃ©cÃ©dent": 8040,
      "rante": 8041,
      "ĠDo": 8042,
      "Ġcompas": 8043,
      "Ġsulf": 8044,
      "Ã©rent": 8045,
      "ĠRes": 8046,
      "ĠTo": 8047,
      "ogram": 8048,
      "Ġrecouverte": 8049,
      "Ġsignes": 8050,
      "ĠVa": 8051,
      "ĠNu": 8052,
      "issantes": 8053,
      "DÃ©couvrez": 8054,
      "adÃ©m": 8055,
      "exposition": 8056,
      "leri": 8057,
      "Ġtransmission": 8058,
      "Ġabstra": 8059,
      "Ġ90": 8060,
      "ĠÃ©lÃ©phant": 8061,
      "hÃ©si": 8062,
      "ĠÃ©panou": 8063,
      "Ġprofesseur": 8064,
      "ĠMark": 8065,
      "ĠMartin": 8066,
      "Ġfilets": 8067,
      "Ġfournissant": 8068,
      "Ġfournitures": 8069,
      "mÃ©di": 8070,
      "ĠdÃ©gustation": 8071,
      "Ġboisson": 8072,
      "Ġfactures": 8073,
      "ĠlibÃ¨re": 8074,
      "image": 8075,
      "ĠresponsabilitÃ©s": 8076,
      "Ġcomportements": 8077,
      "ĠmÃ©taphores": 8078,
      "Ġmatinale": 8079,
      "Ġlacs": 8080,
      "ĠmÃ©decin": 8081,
      "ĠDÃ©co": 8082,
      "Ġpromener": 8083,
      "Ġtouristique": 8084,
      "Ġfinancier": 8085,
      "Ġengage": 8086,
      "DÃ©termine": 8087,
      "Ġconclusions": 8088,
      "ĠpropriÃ©taire": 8089,
      "Ġmonument": 8090,
      "Ġvaste": 8091,
      "Ġperturbations": 8092,
      "ĠsÃ©parer": 8093,
      "Ġluxuri": 8094,
      "ĠschÃ©mas": 8095,
      "ĠÃ®les": 8096,
      "Ġconvaincant": 8097,
      "Ġbranche": 8098,
      "Ġnormes": 8099,
      "ĠPoivre": 8100,
      "Ġpatients": 8101,
      "Ġrebond": 8102,
      "Ġmaximiser": 8103,
      "Ġprosp": 8104,
      "ĠGib": 8105,
      "imagination": 8106,
      "ĠcomplÃ©ter": 8107,
      "Ġcouchage": 8108,
      "Commence": 8109,
      "ĠÃ©lastique": 8110,
      "Ġcordes": 8111,
      "AR": 8112,
      "Hello": 8113,
      "Ne": 8114,
      "Si": 8115,
      "Th": 8116,
      "day": 8117,
      "genti": 8118,
      "oo": 8119,
      "ĠÂ°": 8120,
      "Ġdense": 8121,
      "espÃ¨ces": 8122,
      "isolement": 8123,
      "qui": 8124,
      "ĠvÃ©c": 8125,
      "Ġenvis": 8126,
      "ĠrÃ©el": 8127,
      "ĠCet": 8128,
      "sias": 8129,
      "Ġrus": 8130,
      "Ġexig": 8131,
      "ĠprÃ©ser": 8132,
      "Ã©cou": 8133,
      "ĠRandonnÃ©e": 8134,
      "ĠBig": 8135,
      "eurom": 8136,
      "Ġactive": 8137,
      "ĠacadÃ©m": 8138,
      "tratus": 8139,
      "Ġsoutenu": 8140,
      "ĠmarchÃ©s": 8141,
      "Ġexpertise": 8142,
      "Ġchapeau": 8143,
      "ulÃ©e": 8144,
      "ĠIndonÃ©sie": 8145,
      "Ġalgues": 8146,
      "pule": 8147,
      "Ġneu": 8148,
      "Ġconcis": 8149,
      "Ġavis": 8150,
      "Ġpuisse": 8151,
      "bergement": 8152,
      "anglais": 8153,
      "Ġpersonnels": 8154,
      "Ġverbes": 8155,
      "Ġinterac": 8156,
      "Ġsoigne": 8157,
      "ĠÃ©norme": 8158,
      "Ġindiff": 8159,
      "ĠÃ©conomes": 8160,
      "Ġcanne": 8161,
      "ĠmÃ©diÃ©v": 8162,
      "Ġgarni": 8163,
      "Ġsituations": 8164,
      "Ġcontribuent": 8165,
      "Ġfaciles": 8166,
      "Ġstructures": 8167,
      "ĠgoÃ»": 8168,
      "ĠlibÃ©ration": 8169,
      "Ġpenses": 8170,
      "Ġsymboles": 8171,
      "Ġrendu": 8172,
      "Ġfaute": 8173,
      "ĠassociÃ©e": 8174,
      "Ġoccasion": 8175,
      "Ġsolides": 8176,
      "ĠstratÃ©gies": 8177,
      "voyer": 8178,
      "Ġessayez": 8179,
      "Ġpaisiblement": 8180,
      "Ġfondamentaux": 8181,
      "Ġajuster": 8182,
      "ĠterminÃ©": 8183,
      "Ġadoptant": 8184,
      "ĠPythagore": 8185,
      "âĢĿâĤ¬": 8186,
      "ĠShanghai": 8187,
      "ĠRetirez": 8188,
      "Ġtournant": 8189,
      "ĠcatÃ©gories": 8190,
      "Ġsuspense": 8191
    },
    "merges": [
      [
        "Ġ",
        "d"
      ],
      [
        "e",
        "s"
      ],
      [
        "Ã",
        "©"
      ],
      [
        "Ġ",
        "l"
      ],
      [
        "Ġ",
        "p"
      ],
      [
        "e",
        "n"
      ],
      [
        "o",
        "n"
      ],
      [
        "r",
        "e"
      ],
      [
        "Ġd",
        "e"
      ],
      [
        "o",
        "u"
      ],
      [
        "Ġ",
        "c"
      ],
      [
        "a",
        "n"
      ],
      [
        "Ġ",
        "s"
      ],
      [
        "e",
        "r"
      ],
      [
        "t",
        "i"
      ],
      [
        "e",
        "t"
      ],
      [
        "u",
        "n"
      ],
      [
        "i",
        "s"
      ],
      [
        "q",
        "u"
      ],
      [
        "i",
        "n"
      ],
      [
        "Ġ",
        "un"
      ],
      [
        "t",
        "e"
      ],
      [
        "Ġ",
        "a"
      ],
      [
        "Ġl",
        "a"
      ],
      [
        "en",
        "t"
      ],
      [
        "Ġ",
        "et"
      ],
      [
        "Ġ",
        "m"
      ],
      [
        "l",
        "e"
      ],
      [
        "ou",
        "r"
      ],
      [
        "r",
        "a"
      ],
      [
        "r",
        "Ã©"
      ],
      [
        "i",
        "t"
      ],
      [
        "Ġ",
        "t"
      ],
      [
        "ti",
        "on"
      ],
      [
        "Ġ",
        "Ã"
      ],
      [
        "u",
        "r"
      ],
      [
        "a",
        "r"
      ],
      [
        "Ġ",
        "f"
      ],
      [
        "o",
        "m"
      ],
      [
        "Ġd",
        "es"
      ],
      [
        "Ġl",
        "e"
      ],
      [
        "Ġl",
        "es"
      ],
      [
        "ĠÃ",
        "ł"
      ],
      [
        "qu",
        "e"
      ],
      [
        "i",
        "l"
      ],
      [
        "o",
        "r"
      ],
      [
        "Ġ",
        "v"
      ],
      [
        "Ġun",
        "e"
      ],
      [
        "an",
        "t"
      ],
      [
        "Ã",
        "¨"
      ],
      [
        "Ġ",
        "en"
      ],
      [
        "Ġp",
        "our"
      ],
      [
        "m",
        "ent"
      ],
      [
        "n",
        "e"
      ],
      [
        "v",
        "e"
      ],
      [
        "Ġ",
        "Ã©"
      ],
      [
        "i",
        "e"
      ],
      [
        "r",
        "o"
      ],
      [
        "c",
        "e"
      ],
      [
        "u",
        "s"
      ],
      [
        "l",
        "a"
      ],
      [
        "Ġ",
        "b"
      ],
      [
        "Ġ",
        "-"
      ],
      [
        "a",
        "u"
      ],
      [
        "l",
        "i"
      ],
      [
        "c",
        "h"
      ],
      [
        "es",
        "t"
      ],
      [
        "Ġ",
        "n"
      ],
      [
        "s",
        "e"
      ],
      [
        "an",
        "s"
      ],
      [
        "g",
        "e"
      ],
      [
        "i",
        "r"
      ],
      [
        "t",
        "a"
      ],
      [
        "i",
        "re"
      ],
      [
        "m",
        "e"
      ],
      [
        "r",
        "i"
      ],
      [
        "Ġd",
        "u"
      ],
      [
        "m",
        "p"
      ],
      [
        "Ġc",
        "h"
      ],
      [
        "a",
        "tion"
      ],
      [
        "Ġ",
        "g"
      ],
      [
        "Ġc",
        "on"
      ],
      [
        "Ġ",
        "rÃ©"
      ],
      [
        "Ġ",
        "re"
      ],
      [
        "d",
        "i"
      ],
      [
        "d",
        "e"
      ],
      [
        "Ġ",
        "qu"
      ],
      [
        "a",
        "l"
      ],
      [
        "Ġ",
        "est"
      ],
      [
        "r",
        "es"
      ],
      [
        "Ġ",
        "e"
      ],
      [
        "Ġ",
        ":"
      ],
      [
        "Ġ",
        "1"
      ],
      [
        "Ġc",
        "om"
      ],
      [
        "Ġd",
        "Ã©"
      ],
      [
        "Ġs",
        "ur"
      ],
      [
        "Ġd",
        "ans"
      ],
      [
        "c",
        "i"
      ],
      [
        "l",
        "es"
      ],
      [
        "t",
        "Ã©"
      ],
      [
        "Ġ",
        "P"
      ],
      [
        "Ġ",
        "j"
      ],
      [
        "a",
        "s"
      ],
      [
        "Ġp",
        "ar"
      ],
      [
        "Ġ",
        "in"
      ],
      [
        "Ġ",
        "C"
      ],
      [
        "o",
        "t"
      ],
      [
        "Ġ",
        "L"
      ],
      [
        "Ġa",
        "u"
      ],
      [
        "Ġp",
        "ro"
      ],
      [
        "er",
        "s"
      ],
      [
        "u",
        "re"
      ],
      [
        "f",
        "f"
      ],
      [
        "e",
        "l"
      ],
      [
        "s",
        "i"
      ],
      [
        "o",
        "l"
      ],
      [
        "o",
        "i"
      ],
      [
        "Ġ",
        "que"
      ],
      [
        "it",
        "Ã©"
      ],
      [
        "Ġ",
        "r"
      ],
      [
        "t",
        "es"
      ],
      [
        "Ġp",
        "l"
      ],
      [
        "Ã©",
        "e"
      ],
      [
        "a",
        "is"
      ],
      [
        "u",
        "i"
      ],
      [
        "ou",
        "s"
      ],
      [
        "c",
        "es"
      ],
      [
        "m",
        "a"
      ],
      [
        "in",
        "e"
      ],
      [
        "Ġ",
        "2"
      ],
      [
        "o",
        "s"
      ],
      [
        "Ã¨",
        "re"
      ],
      [
        "en",
        "d"
      ],
      [
        "on",
        "t"
      ],
      [
        "Ġ",
        "h"
      ],
      [
        "Ġ",
        "te"
      ],
      [
        "e",
        "u"
      ],
      [
        "Ġ",
        "\""
      ],
      [
        "Ġ",
        "E"
      ],
      [
        "Ġ",
        "S"
      ],
      [
        "p",
        "a"
      ],
      [
        "Ġqu",
        "i"
      ],
      [
        "Ġ",
        "A"
      ],
      [
        "a",
        "t"
      ],
      [
        "ve",
        "c"
      ],
      [
        "ou",
        "ve"
      ],
      [
        "m",
        "es"
      ],
      [
        "on",
        "ne"
      ],
      [
        "r",
        "is"
      ],
      [
        "Ġf",
        "a"
      ],
      [
        "Ġa",
        "vec"
      ],
      [
        "qu",
        "es"
      ],
      [
        "Ġe",
        "x"
      ],
      [
        "t",
        "er"
      ],
      [
        "p",
        "p"
      ],
      [
        "on",
        "n"
      ],
      [
        "c",
        "tion"
      ],
      [
        "on",
        "s"
      ],
      [
        "Ġm",
        "Ã©"
      ],
      [
        "l",
        "le"
      ],
      [
        "g",
        "u"
      ],
      [
        "Ġp",
        "rÃ©"
      ],
      [
        "Ã",
        "¢"
      ],
      [
        "r",
        "an"
      ],
      [
        "Ġ",
        "M"
      ],
      [
        "a",
        "le"
      ],
      [
        "Ġ",
        "o"
      ],
      [
        "d",
        "u"
      ],
      [
        "Ġs",
        "e"
      ],
      [
        "a",
        "ge"
      ],
      [
        "Ã",
        "ª"
      ],
      [
        "Ġ",
        "i"
      ],
      [
        "t",
        "re"
      ],
      [
        "i",
        "c"
      ],
      [
        "ti",
        "l"
      ],
      [
        "Ġ",
        "D"
      ],
      [
        "i",
        "que"
      ],
      [
        "rÃ©",
        "e"
      ],
      [
        "a",
        "c"
      ],
      [
        "ti",
        "que"
      ],
      [
        "et",
        "te"
      ],
      [
        "Ã©",
        "s"
      ],
      [
        "p",
        "e"
      ],
      [
        "Ġ",
        "3"
      ],
      [
        "Ġp",
        "h"
      ],
      [
        "ou",
        "v"
      ],
      [
        "Ġc",
        "a"
      ],
      [
        "re",
        "r"
      ],
      [
        "Ġc",
        "u"
      ],
      [
        "Ġs",
        "o"
      ],
      [
        "g",
        "n"
      ],
      [
        "u",
        "x"
      ],
      [
        "Ġ",
        "I"
      ],
      [
        "en",
        "ce"
      ],
      [
        "Ġcom",
        "p"
      ],
      [
        "Ġs",
        "a"
      ],
      [
        "ur",
        "s"
      ],
      [
        "b",
        "le"
      ],
      [
        "Ġm",
        "a"
      ],
      [
        "Ġpl",
        "us"
      ],
      [
        "Ġs",
        "u"
      ],
      [
        "Ġp",
        "o"
      ],
      [
        "Ġd",
        "i"
      ],
      [
        "Ã©",
        "es"
      ],
      [
        "il",
        "l"
      ],
      [
        "Ã©",
        "r"
      ],
      [
        "Ġ",
        "ou"
      ],
      [
        "o",
        "c"
      ],
      [
        "ch",
        "e"
      ],
      [
        "Ġ",
        "F"
      ],
      [
        "Ã©",
        "c"
      ],
      [
        "Ġ",
        "R"
      ],
      [
        "til",
        "is"
      ],
      [
        "or",
        "t"
      ],
      [
        "Ġt",
        "ra"
      ],
      [
        "a",
        "m"
      ],
      [
        "Ġm",
        "o"
      ],
      [
        "p",
        "h"
      ],
      [
        "Ġp",
        "a"
      ],
      [
        "Ġ",
        "T"
      ],
      [
        "Ã©",
        "n"
      ],
      [
        "Ġ",
        "5"
      ],
      [
        "r",
        "ouve"
      ],
      [
        "au",
        "x"
      ],
      [
        "Ġm",
        "on"
      ],
      [
        "o",
        "g"
      ],
      [
        "Ġ",
        "J"
      ],
      [
        "ĠÃ©",
        "ta"
      ],
      [
        "Ġre",
        "c"
      ],
      [
        "il",
        "le"
      ],
      [
        "Ġc",
        "e"
      ],
      [
        "Ġ",
        "4"
      ],
      [
        "t",
        "o"
      ],
      [
        "ti",
        "f"
      ],
      [
        "u",
        "m"
      ],
      [
        "Ġp",
        "r"
      ],
      [
        "t",
        "u"
      ],
      [
        "Ġs",
        "i"
      ],
      [
        "un",
        "e"
      ],
      [
        "Ġl",
        "i"
      ],
      [
        "L",
        "a"
      ],
      [
        "u",
        "tilis"
      ],
      [
        "an",
        "te"
      ],
      [
        "in",
        "s"
      ],
      [
        "s",
        "er"
      ],
      [
        "is",
        "te"
      ],
      [
        "T",
        "rouve"
      ],
      [
        "l",
        "o"
      ],
      [
        "r",
        "u"
      ],
      [
        "v",
        "ant"
      ],
      [
        "an",
        "d"
      ],
      [
        "i",
        "en"
      ],
      [
        "ent",
        "s"
      ],
      [
        "t",
        "en"
      ],
      [
        "l",
        "Ã©"
      ],
      [
        "ot",
        "re"
      ],
      [
        "g",
        "er"
      ],
      [
        "Ġ",
        "B"
      ],
      [
        "l",
        "an"
      ],
      [
        "ent",
        "re"
      ],
      [
        "b",
        "re"
      ],
      [
        "s",
        "t"
      ],
      [
        "Ġp",
        "as"
      ],
      [
        "o",
        "is"
      ],
      [
        "a",
        "i"
      ],
      [
        "an",
        "ce"
      ],
      [
        "ĠE",
        "n"
      ],
      [
        "ment",
        "s"
      ],
      [
        "Ã¨",
        "me"
      ],
      [
        "Ġc",
        "our"
      ],
      [
        "ra",
        "tion"
      ],
      [
        "Ġs",
        "ui"
      ],
      [
        "Ġf",
        "or"
      ],
      [
        "Ġt",
        "h"
      ],
      [
        "Ġs",
        "ont"
      ],
      [
        "ti",
        "v"
      ],
      [
        "Ġa",
        "r"
      ],
      [
        "Ã",
        "®"
      ],
      [
        "a",
        "ire"
      ],
      [
        "Ġ",
        "ra"
      ],
      [
        "p",
        "Ã©"
      ],
      [
        "Ġp",
        "ers"
      ],
      [
        "C",
        "rÃ©e"
      ],
      [
        "v",
        "re"
      ],
      [
        "e",
        "ur"
      ],
      [
        "f",
        "or"
      ],
      [
        "Ġi",
        "mp"
      ],
      [
        "Ġ",
        "V"
      ],
      [
        "L",
        "e"
      ],
      [
        "g",
        "es"
      ],
      [
        "Ġp",
        "la"
      ],
      [
        "Ġ",
        "utilis"
      ],
      [
        "o",
        "ir"
      ],
      [
        "t",
        "s"
      ],
      [
        "v",
        "a"
      ],
      [
        "R",
        "Ã©"
      ],
      [
        "p",
        "es"
      ],
      [
        "ĠÃ©",
        "c"
      ],
      [
        "t",
        "ure"
      ],
      [
        "Ġ",
        "an"
      ],
      [
        "i",
        "Ã¨re"
      ],
      [
        "Ġp",
        "eu"
      ],
      [
        "v",
        "ers"
      ],
      [
        "Ġdi",
        "ff"
      ],
      [
        "Ã",
        "§"
      ],
      [
        "Ġ",
        "il"
      ],
      [
        "Ġa",
        "c"
      ],
      [
        "v",
        "i"
      ],
      [
        "0",
        "0"
      ],
      [
        "Ġa",
        "m"
      ],
      [
        "c",
        "u"
      ],
      [
        "Å",
        "ĵ"
      ],
      [
        "j",
        "ou"
      ],
      [
        "ation",
        "s"
      ],
      [
        "Ġt",
        "r"
      ],
      [
        "it",
        "s"
      ],
      [
        "e",
        "au"
      ],
      [
        "ĠrÃ©",
        "s"
      ],
      [
        "a",
        "b"
      ],
      [
        "Ã",
        "´"
      ],
      [
        "Ã©",
        "g"
      ],
      [
        "on",
        "d"
      ],
      [
        "er",
        "re"
      ],
      [
        "Ġa",
        "pp"
      ],
      [
        "Ġte",
        "mp"
      ],
      [
        "Ġc",
        "rÃ©"
      ],
      [
        "Ġ",
        "entre"
      ],
      [
        "Ġ",
        "?"
      ],
      [
        "Ġp",
        "u"
      ],
      [
        "Ġ",
        "N"
      ],
      [
        "Ġc",
        "ar"
      ],
      [
        "ti",
        "n"
      ],
      [
        "is",
        "s"
      ],
      [
        "Ġn",
        "om"
      ],
      [
        "li",
        "que"
      ],
      [
        "Ã©",
        "ra"
      ],
      [
        "i",
        "ques"
      ],
      [
        "l",
        "u"
      ],
      [
        "end",
        "ant"
      ],
      [
        "ir",
        "es"
      ],
      [
        "Ġs",
        "on"
      ],
      [
        "om",
        "a"
      ],
      [
        "t",
        "h"
      ],
      [
        "v",
        "ir"
      ],
      [
        "D",
        "Ã©c"
      ],
      [
        "Ġl",
        "iste"
      ],
      [
        "P",
        "our"
      ],
      [
        "u",
        "e"
      ],
      [
        "Ġp",
        "Ã¢"
      ],
      [
        "Ġcom",
        "m"
      ],
      [
        "Ġt",
        "ou"
      ],
      [
        "o",
        "y"
      ],
      [
        "Ġ",
        "G"
      ],
      [
        "Ġ",
        "es"
      ],
      [
        "di",
        "ge"
      ],
      [
        "Ġc",
        "ou"
      ],
      [
        "Ġm",
        "in"
      ],
      [
        "ĠdÃ©",
        "c"
      ],
      [
        "v",
        "er"
      ],
      [
        "l",
        "les"
      ],
      [
        "Ġdiff",
        "Ã©r"
      ],
      [
        "p",
        "o"
      ],
      [
        "e",
        "mp"
      ],
      [
        "i",
        "m"
      ],
      [
        "Ġp",
        "er"
      ],
      [
        "Ġ",
        "("
      ],
      [
        "DÃ©c",
        "ris"
      ],
      [
        "Ġph",
        "ra"
      ],
      [
        "ant",
        "s"
      ],
      [
        "Ġj",
        "e"
      ],
      [
        "el",
        "le"
      ],
      [
        "Ġv",
        "ous"
      ],
      [
        "end",
        "re"
      ],
      [
        "en",
        "s"
      ],
      [
        "Ġau",
        "x"
      ],
      [
        "to",
        "ire"
      ],
      [
        "ti",
        "ques"
      ],
      [
        "RÃ©",
        "dige"
      ],
      [
        "Ġm",
        "ot"
      ],
      [
        "our",
        "n"
      ],
      [
        "l",
        "Ã¨"
      ],
      [
        "t",
        "res"
      ],
      [
        "i",
        "er"
      ],
      [
        "ĠL",
        "es"
      ],
      [
        "tion",
        "s"
      ],
      [
        "li",
        "c"
      ],
      [
        "l",
        "s"
      ],
      [
        "Åĵ",
        "u"
      ],
      [
        "t",
        "ra"
      ],
      [
        "ĠÃ",
        "ī"
      ],
      [
        "Ġv",
        "otre"
      ],
      [
        "is",
        "toire"
      ],
      [
        "Ġfa",
        "ire"
      ],
      [
        "Ġrec",
        "ette"
      ],
      [
        "Ġs",
        "ou"
      ],
      [
        "Ġm",
        "ais"
      ],
      [
        "ti",
        "s"
      ],
      [
        "Ġmin",
        "u"
      ],
      [
        "Ġv",
        "ie"
      ],
      [
        "g",
        "rÃ©"
      ],
      [
        "Ġ",
        "6"
      ],
      [
        "x",
        "p"
      ],
      [
        "Ġd",
        "is"
      ],
      [
        "Ġj",
        "us"
      ],
      [
        "t",
        "ri"
      ],
      [
        "Ġd",
        "onn"
      ],
      [
        "or",
        "d"
      ],
      [
        "ces",
        "s"
      ],
      [
        "ĠP",
        "ar"
      ],
      [
        "Ġm",
        "ar"
      ],
      [
        "c",
        "re"
      ],
      [
        "g",
        "ne"
      ],
      [
        "an",
        "ge"
      ],
      [
        "Ġminu",
        "tes"
      ],
      [
        "ur",
        "es"
      ],
      [
        "Ã©",
        "ri"
      ],
      [
        "Ã¨",
        "s"
      ],
      [
        "d",
        "es"
      ],
      [
        "te",
        "ur"
      ],
      [
        "Ġex",
        "p"
      ],
      [
        "ch",
        "es"
      ],
      [
        "Ġch",
        "a"
      ],
      [
[...]
