{
  "version": "1.0",
  "truncation": null,
  "padding": null,
  "added_tokens": [
    {
      "id": 0,
      "content": "<pad>",
      "single_word": false,
      "lstrip": false,
      "rstrip": false,
      "normalized": false,
      "special": true
    },
    {
      "id": 1,
      "content": "<s>",
      "single_word": false,
      "lstrip": false,
      "rstrip": false,
      "normalized": false,
      "special": true
    },
    {
      "id": 2,
      "content": "</s>",
      "single_word": false,
      "lstrip": false,
      "rstrip": false,
      "normalized": false,
      "special": true
    },
    {
      "id": 3,
      "content": "<unk>",
      "single_word": false,
      "lstrip": false,
      "rstrip": false,
      "normalized": false,
      "special": true
    },
    {
      "id": 4,
      "content": "<|system|>",
      "single_word": false,
      "lstrip": false,
      "rstrip": false,
      "normalized": false,
      "special": true
    },
    {
      "id": 5,
      "content": "<|user|>",
      "single_word": false,
      "lstrip": false,
      "rstrip": false,
      "normalized": false,
      "special": true
    },
    {
      "id": 6,
      "content": "<|assistant|>",
      "single_word": false,
      "lstrip": false,
      "rstrip": false,
      "normalized": false,
      "special": true
    },
    {
      "id": 7,
      "content": "<|endoftext|>",
      "single_word": false,
      "lstrip": false,
      "rstrip": false,
      "normalized": false,
      "special": true
    }
  ],
  "normalizer": null,
  "pre_tokenizer": {
    "type": "ByteLevel",
    "add_prefix_space": false,
    "trim_offsets": true,
    "use_regex": true
  },
  "post_processor": null,
  "decoder": {
    "type": "ByteLevel",
    "add_prefix_space": true,
    "trim_offsets": true,
    "use_regex": true
  },
  "model": {
    "type": "BPE",
    "dropout": null,
    "unk_token": "<unk>",
    "continuing_subword_prefix": null,
    "end_of_word_suffix": null,
    "fuse_unk": false,
    "byte_fallback": false,
    "ignore_merges": false,
    "vocab": {
      "<pad>": 0,
      "<s>": 1,
      "</s>": 2,
      "<unk>": 3,
      "<|system|>": 4,
      "<|user|>": 5,
      "<|assistant|>": 6,
      "<|endoftext|>": 7,
      "!": 8,
      "\"": 9,
      "#": 10,
      "$": 11,
      "%": 12,
      "&": 13,
      "'": 14,
      "(": 15,
      ")": 16,
      "*": 17,
      "+": 18,
      ",": 19,
      "-": 20,
      ".": 21,
      "/": 22,
      "0": 23,
      "1": 24,
      "2": 25,
      "3": 26,
      "4": 27,
      "5": 28,
      "6": 29,
      "7": 30,
      "8": 31,
      "9": 32,
      ":": 33,
      ";": 34,
      "<": 35,
      "=": 36,
      ">": 37,
      "?": 38,
      "@": 39,
      "A": 40,
      "B": 41,
      "C": 42,
      "D": 43,
      "E": 44,
      "F": 45,
      "G": 46,
      "H": 47,
      "I": 48,
      "J": 49,
      "K": 50,
      "L": 51,
      "M": 52,
      "N": 53,
      "O": 54,
      "P": 55,
      "Q": 56,
      "R": 57,
      "S": 58,
      "T": 59,
      "U": 60,
      "V": 61,
      "W": 62,
      "X": 63,
      "Y": 64,
      "Z": 65,
      "[": 66,
      "\\": 67,
      "]": 68,
      "^": 69,
      "_": 70,
      "`": 71,
      "a": 72,
      "b": 73,
      "c": 74,
      "d": 75,
      "e": 76,
      "f": 77,
      "g": 78,
      "h": 79,
      "i": 80,
      "j": 81,
      "k": 82,
      "l": 83,
      "m": 84,
      "n": 85,
      "o": 86,
      "p": 87,
      "q": 88,
      "r": 89,
      "s": 90,
      "t": 91,
      "u": 92,
      "v": 93,
      "w": 94,
      "x": 95,
      "y": 96,
      "z": 97,
      "{": 98,
      "|": 99,
      "}": 100,
      "~": 101,
      "¡": 102,
      "¢": 103,
      "£": 104,
      "¤": 105,
      "¥": 106,
      "¦": 107,
      "§": 108,
      "¨": 109,
      "©": 110,
      "ª": 111,
      "«": 112,
      "¬": 113,
      "®": 114,
      "¯": 115,
      "°": 116,
      "±": 117,
      "²": 118,
      "³": 119,
      "´": 120,
      "µ": 121,
      "¶": 122,
      "·": 123,
      "¸": 124,
      "¹": 125,
      "º": 126,
      "»": 127,
      "¼": 128,
      "½": 129,
      "¾": 130,
      "¿": 131,
      "À": 132,
      "Á": 133,
      "Â": 134,
      "Ã": 135,
      "Ä": 136,
      "Å": 137,
      "Æ": 138,
      "Ç": 139,
      "È": 140,
      "É": 141,
      "Ê": 142,
      "Ë": 143,
      "Ì": 144,
      "Í": 145,
      "Î": 146,
      "Ï": 147,
      "Ð": 148,
      "Ñ": 149,
      "Ò": 150,
      "Ó": 151,
      "Ô": 152,
      "Õ": 153,
      "Ö": 154,
      "×": 155,
      "Ø": 156,
      "Ù": 157,
      "Ú": 158,
      "Û": 159,
      "Ü": 160,
      "Ý": 161,
      "Þ": 162,
      "ß": 163,
      "à": 164,
      "á": 165,
      "â": 166,
      "ã": 167,
      "ä": 168,
      "å": 169,
      "æ": 170,
      "ç": 171,
      "è": 172,
      "é": 173,
      "ê": 174,
      "ë": 175,
      "ì": 176,
      "í": 177,
      "î": 178,
      "ï": 179,
      "ð": 180,
      "ñ": 181,
      "ò": 182,
      "ó": 183,
      "ô": 184,
      "õ": 185,
      "ö": 186,
      "÷": 187,
      "ø": 188,
      "ù": 189,
      "ú": 190,
      "û": 191,
      "ü": 192,
      "ý": 193,
      "þ": 194,
      "ÿ": 195,
      "Ā": 196,
      "ā": 197,
      "Ă": 198,
      "ă": 199,
      "Ą": 200,
      "ą": 201,
      "Ć": 202,
      "ć": 203,
      "Ĉ": 204,
      "ĉ": 205,
      "Ċ": 206,
      "ċ": 207,
      "Č": 208,
      "č": 209,
      "Ď": 210,
      "ď": 211,
      "Đ": 212,
      "đ": 213,
      "Ē": 214,
      "ē": 215,
      "Ĕ": 216,
      "ĕ": 217,
      "Ė": 218,
      "ė": 219,
      "Ę": 220,
      "ę": 221,
      "Ě": 222,
      "ě": 223,
      "Ĝ": 224,
      "ĝ": 225,
      "Ğ": 226,
      "ğ": 227,
      "Ġ": 228,
      "ġ": 229,
      "Ģ": 230,
      "ģ": 231,
      "Ĥ": 232,
      "ĥ": 233,
      "Ħ": 234,
      "ħ": 235,
      "Ĩ": 236,
      "ĩ": 237,
      "Ī": 238,
      "ī": 239,
      "Ĭ": 240,
      "ĭ": 241,
      "Į": 242,
      "į": 243,
      "İ": 244,
      "ı": 245,
      "Ĳ": 246,
      "ĳ": 247,
      "Ĵ": 248,
      "ĵ": 249,
      "Ķ": 250,
      "ķ": 251,
      "ĸ": 252,
      "Ĺ": 253,
      "ĺ": 254,
      "Ļ": 255,
      "ļ": 256,
      "Ľ": 257,
      "ľ": 258,
      "Ŀ": 259,
      "ŀ": 260,
      "Ł": 261,
      "ł": 262,
      "Ń": 263,
      "čĊ": 264,
      "on": 265,
      "es": 266,
      "Ġa": 267,
      "nt": 268,
      "is": 269,
      "el": 270,
      "Ġp": 271,
      "le": 272,
      "Ã©": 273,
      "Ġc": 274,
      "Ġd": 275,
      "ti": 276,
      "er": 277,
      "ou": 278,
      "re": 279,
      "te": 280,
      "Ġe": 281,
      "un": 282,
      "Ġl": 283,
      "</": 284,
      "<|": 285,
      "|>": 286,
      "Ġun": 287,
      "ta": 288,
      "us": 289,
      "tion": 290,
      ".</": 291,
      "ss": 292,
      "Ġet": 293,
      "our": 294,
      "qu": 295,
      "tant": 296,
      "Ġs": 297,
      "om": 298,
      "ssis": 299,
      "Ġm": 300,
      "ssistant": 301,
      "in": 302,
      "Ġcon": 303,
      "or": 304,
      "Ġpr": 305,
      "en": 306,
      "ĠV": 307,
      "Ġde": 308,
      "ĠA": 309,
      "ox": 310,
      "Ġt": 311,
      "ce": 312,
      "al": 313,
      "me": 314,
      "Ġr": 315,
      "Ġune": 316,
      "ĠVox": 317,
      "ĠVoxel": 318,
      "Ġla": 319,
      "ar": 320,
      "la": 321,
      "tem": 322,
      "Ġes": 323,
      "Ġv": 324,
      "ers": 325,
      "ation": 326,
      "ĠAI": 327,
      "sy": 328,
      "ci": 329,
      "user": 330,
      "eu": 331,
      "ĠÃ": 332,
      "assistant": 333,
      "stem": 334,
      "system": 335,
      "an": 336,
      "Ġb": 337,
      "?</": 338,
      "vers": 339,
      "il": 340,
      "Ġf": 341,
      "int": 342,
      "elle": 343,
      "ĠÃł": 344,
      "Ã¨": 345,
      "ec": 346,
      "ment": 347,
      "tu": 348,
      "rti": 349,
      "Ġarti": 350,
      "Ġconvers": 351,
      "Ġconversation": 352,
      "ra": 353,
      "que": 354,
      "cis": 355,
      "Ġen": 356,
      "ig": 357,
      "fi": 358,
      "Ġ?</": 359,
      "Ġle": 360,
      "Ġau": 361,
      "nd": 362,
      "Ġles": 363,
      "Ġn": 364,
      "ch": 365,
      "use": 366,
      "Ġassistant": 367,
      "it": 368,
      "Tu": 369,
      "jour": 370,
      "Ġint": 371,
      "Ġpro": 372,
      "Ġh": 373,
      "ell": 374,
      "oi": 375,
      "ous": 376,
      "Ġpour": 377,
      "se": 378,
      "ence": 379,
      "Ġre": 380,
      "Ġqu": 381,
      "Ġ:": 382,
      "Ġand": 383,
      "eur": 384,
      "ul": 385,
      "Ġma": 386,
      "mp": 387,
      "ĠÃ©": 388,
      "ant": 389,
      "Ġcom": 390,
      "Ġest": 391,
      "ha": 392,
      "ez": 393,
      "ur": 394,
      "Ġartifi": 395,
      "Ġconversationn": 396,
      "igence": 397,
      "elligence": 398,
      "Ġartifici": 399,
      "et": 400,
      "Ġav": 401,
      "Ġ(": 402,
      "ĠP": 403,
      "ire": 404,
      "Ġare": 405,
      "ĠrÃ©": 406,
      "ĠprÃ©": 407,
      "Ġintelligence": 408,
      "Ġpar": 409,
      "ing": 410,
      "nÃ©": 411,
      "Ġartificielle": 412,
      "os": 413,
      "rÃ©": 414,
      "ut": 415,
      "ula": 416,
      "ction": 417,
      "Ġconversationnel": 418,
      "Ġdes": 419,
      "Ġavec": 420,
      "ble": 421,
      "ge": 422,
      "Qu": 423,
      "ans": 424,
      "ĠprÃ©cis": 425,
      "pp": 426,
      "Ġres": 427,
      "uti": 428,
      "Ġuti": 429,
      "Bon": 430,
      "Bonjour": 431,
      "Ã®": 432,
      "Ġg": 433,
      "gu": 434,
      "ĠS": 435,
      "une": 436,
      "ff": 437,
      "id": 438,
      "Ġconcis": 439,
      "You": 440,
      "cula": 441,
      "ful": 442,
      "pful": 443,
      "elpful": 444,
      "Ġarticula": 445,
      "Ġconversational": 446,
      "Ġhelpful": 447,
      "Ġutile": 448,
      "Ġarticulate": 449,
      "ite": 450,
      "ond": 451,
      "th": 452,
      "Ġj": 453,
      "euse": 454,
      "Ġte": 455,
      "Ġ!": 456,
      "Ġw": 457,
      "ess": 458,
      "Ġo": 459,
      "ĠQu": 460,
      "Ġvous": 461,
      "ion": 462,
      "Ġmo": 463,
      "ent": 464,
      "ole": 465,
      "ati": 466,
      "ĠL": 467,
      "est": 468,
      "moi": 469,
      "ne": 470,
      "Ã¨re": 471,
      "pec": 472,
      "ĠC": 473,
      "Ġcla": 474,
      "tueuse": 475,
      "ette": 476,
      "Ġrespec": 477,
      "Ġclaire": 478,
      "Ġrespectueuse": 479,
      "emp": 480,
      "li": 481,
      "Ġex": 482,
      "eux": 483,
      "uis": 484,
      "Ġdi": 485,
      "Ġtr": 486,
      "Ġin": 487,
      "ins": 488,
      "com": 489,
      "age": 490,
      "tes": 491,
      "leu": 492,
      "Ġbleu": 493,
      "iv": 494,
      "Ġ2": 495,
      "ais": 496,
      "gi": 497,
      "Ġis": 498,
      "oleil": 499,
      "Ġou": 500,
      "Ã®t": 501,
      "lÃ©": 502,
      "eurs": 503,
      "ois": 504,
      "Ġpl": 505,
      "Ġaut": 506,
      "Ġcha": 507,
      "mm": 508,
      "Ġpla": 509,
      "ate": 510,
      "Ġtou": 511,
      "pli": 512,
      "ons": 513,
      "¢ch": 514,
      "Ã¢ch": 515,
      "ĠtÃ¢ch": 516,
      "Ġfa": 517,
      "Ġprog": 518,
      "Sal": 519,
      "Salut": 520,
      "ru": 521,
      "Ġx": 522,
      "onction": 523,
      "Ġfonction": 524,
      "lo": 525,
      "Ġque": 526,
      "pen": 527,
      "imp": 528,
      "ner": 529,
      "Ġth": 530,
      "ture": 531,
      "nÃ©es": 532,
      "omm": 533,
      "Ġsur": 534,
      "Ġtra": 535,
      "ord": 536,
      "au": 537,
      "cess": 538,
      "od": 539,
      "temp": 540,
      "Ġprocess": 541,
      "pa": 542,
      "tÃ©": 543,
      "igh": 544,
      "les": 545,
      "ai": 546,
      "ex": 547,
      "iel": 548,
      "ongu": 549,
      "Ġciel": 550,
      "Ġlongu": 551,
      "Ġcomp": 552,
      "Ġal": 553,
      "at": 554,
      "Ġcour": 555,
      "ĠSoleil": 556,
      "Ġdans": 557,
      "ques": 558,
      "ien": 559,
      "Ġplus": 560,
      "ĠplaÃ®t": 561,
      "ib": 562,
      "Ġdiff": 563,
      "ca": 564,
      "ffi": 565,
      "Ġdon": 566,
      "Ġeffi": 567,
      "Ġeffica": 568,
      "Ġvos": 569,
      "Je": 570,
      "mi": 571,
      "Ġtemp": 572,
      "Ġpuis": 573,
      "Ġy": 574,
      "app": 575,
      "Ġchaque": 576,
      "Dis": 577,
      "tre": 578,
      "no": 579,
      "Ġ3": 580,
      "Ġlan": 581,
      "Ġvo": 582,
      "Ġqui": 583,
      "cr": 584,
      "Ã§": 585,
      "Ġent": 586,
      "Ġfor": 587,
      "Ġexemp": 588,
      "Ġmin": 589,
      "ramm": 590,
      "Ġprogramm": 591,
      "86": 592,
      "RM": 593,
      "ĠARM": 594,
      "ors": 595,
      "Ġinter": 596,
      "able": 597,
      "Ġlo": 598,
      "Ġ5": 599,
      "estion": 600,
      "Ġsu": 601,
      "orit": 602,
      "Ġquestion": 603,
      "hu": 604,
      "tru": 605,
      "Ġpomm": 606,
      "ork": 607,
      "jourd": 608,
      "ctions": 609,
      "instru": 610,
      "Ġautom": 611,
      "hui": 612,
      "Ġpommes": 613,
      "instructions": 614,
      "ĠN": 615,
      "Ġapp": 616,
      "mati": 617,
      "oci": 618,
      "ter": 619,
      "Ġass": 620,
      "Ġmati": 621,
      "Ġmath": 622,
      "Ġassoci": 623,
      "ĠT": 624,
      "Ġdu": 625,
      "ose": 626,
      "Ġph": 627,
      "Ã©e": 628,
      "ren": 629,
      "Ġsimp": 630,
      "Ġsimple": 631,
      "Ġpre": 632,
      "omment": 633,
      "Ġman": 634,
      "tez": 635,
      "arch": 636,
      "ine": 637,
      "ata": 638,
      "ĠE": 639,
      "Ġdata": 640,
      "ted": 641,
      "Ġwe": 642,
      "ts": 643,
      "elette": 644,
      "omelette": 645,
      "Ġof": 646,
      "Ġthe": 647,
      "ĠI": 648,
      "onde": 649,
      "Ġlongueurs": 650,
      ").": 651,
      "ause": 652,
      "ens": 653,
      "Ġcomme": 654,
      "Voi": 655,
      "ail": 656,
      "rd": 657,
      "vail": 658,
      "ĠW": 659,
      "Ã©s": 660,
      "Ġcar": 661,
      "union": 662,
      "tard": 663,
      "Ġsa": 664,
      "Ġconse": 665,
      "Ġpri": 666,
      "ils": 667,
      "raÃ®": 668,
      "Ġretard": 669,
      "ĠrÃ©union": 670,
      "ĠComment": 671,
      "Ġtrois": 672,
      "ĠtÃ¢ches": 673,
      "exc": 674,
      "Ġmatin": 675,
      "Voici": 676,
      "Ġconseils": 677,
      "raÃ®nÃ©": 678,
      "ement": 679,
      "Ġan": 680,
      "ĠcrÃ©": 681,
      "Ġdis": 682,
      "Ġcomm": 683,
      "lon": 684,
      "pe": 685,
      "leur": 686,
      "Ġtemps": 687,
      "par": 688,
      "comme": 689,
      "Ġexemple": 690,
      "ces": 691,
      "san": 692,
      "Ġ=": 693,
      "Ã©ner": 694,
      "tique": 695,
      "Ġbien": 696,
      "gie": 697,
      "sance": 698,
      "Ã©nergie": 699,
      "ad": 700,
      "vel": 701,
      "work": 702,
      "yth": 703,
      "Ġjour": 704,
      "Ġprint": 705,
      "Ġneur": 706,
      "Ġnet": 707,
      "ĠrÃ©s": 708,
      "guage": 709,
      "emps": 710,
      "Ġlanguage": 711,
      "Ġprogramming": 712,
      "ython": 713,
      "ĠjournÃ©es": 714,
      "Ġprintemps": 715,
      "Ġnetwork": 716,
      "lis": 717,
      "ĠD": 718,
      "erci": 719,
      "cev": 720,
      "its": 721,
      "hat": 722,
      "are": 723,
      "ft": 724,
      "mble": 725,
      "na": 726,
      "oft": 727,
      "sour": 728,
      "ware": 729,
      "Ġper": 730,
      "Ã©es": 731,
      "Ã©mati": 732,
      "Ġsoft": 733,
      "ĠrÃ¨": 734,
      "Ġense": 735,
      "ity": 736,
      "Ġyou": 737,
      "ĠmathÃ©mati": 738,
      "Ġassocie": 739,
      "source": 740,
      "Ġsoftware": 741,
      "ĠrÃ¨g": 742,
      "Ġensemble": 743,
      "ĠmathÃ©matiques": 744,
      "di": 745,
      "Ġelle": 746,
      "Ġce": 747,
      "Ġsuite": 748,
      "),": 749,
      "IS": 750,
      "cture": 751,
      "dant": 752,
      "pose": 753,
      "ªtre": 754,
      "ĠBonjour": 755,
      "onne": 756,
      "Ġpo": 757,
      "ourqu": 758,
      "ĠÃªtre": 759,
      "Ġnous": 760,
      "Ġrepose": 761,
      "ĠÃ©ta": 762,
      "Ġgar": 763,
      "itecture": 764,
      "Ġjeu": 765,
      "Ġprocesseur": 766,
      "architecture": 767,
      "ISC": 768,
      "ourquoi": 769,
      "Ġlu": 770,
      "ort": 771,
      "Ġva": 772,
      "Ã¨ne": 773,
      "gan": 774,
      "Ġpeu": 775,
      "err": 776,
      "Ġmi": 777,
      "organ": 778,
      "Ġvi": 779,
      "organis": 780,
      "ay": 781,
      "pr": 782,
      "res": 783,
      "Ġconn": 784,
      "ents": 785,
      "ivement": 786,
      "iable": 787,
      "ĠJ": 788,
      "Ã©pen": 789,
      "Ġsec": 790,
      "Ġsans": 791,
      "ariable": 792,
      "Ġvariable": 793,
      "Ġaujourd": 794,
      "uff": 795,
      "erv": 796,
      "Ġson": 797,
      "Ġserv": 798,
      "Ġtout": 799,
      "cul": 800,
      "iÃ¨re": 801,
      "sage": 802,
      "ntis": 803,
      "rentis": 804,
      "Ġsci": 805,
      "lant": 806,
      "atique": 807,
      "Ġtrans": 808,
      "logi": 809,
      "apprentis": 810,
      "Ġautomatique": 811,
      "ĠmaniÃ¨re": 812,
      "apprentissage": 813,
      "aite": 814,
      "ck": 815,
      "cal": 816,
      "ccom": 817,
      "eau": 818,
      "faite": 819,
      "Ġord": 820,
      "Ġmon": 821,
      "Ġparfaite": 822,
      "Ġreste": 823,
      "plir": 824,
      "ĠtÃ¢che": 825,
      "tern": 826,
      "ccomplir": 827,
      "con": 828,
      "du": 829,
      "gorit": 830,
      "hme": 831,
      "pond": 832,
      "tte": 833,
      "´t": 834,
      "Ã´t": 835,
      "Ġ4": 836,
      "ĠVous": 837,
      "Ġnom": 838,
      "ĠrÃ©pond": 839,
      "Ġalgorit": 840,
      "Ġquestions": 841,
      "Ġsimplement": 842,
      "Ġcommun": 843,
      "ĠrÃ©pondre": 844,
      "Ġalgorithme": 845,
      "dÃ¨": 846,
      "ĠconÃ§": 847,
      "ĠmodÃ¨": 848,
      "ĠentraÃ®nÃ©": 849,
      "ĠconÃ§u": 850,
      "fs": 851,
      "ufs": 852,
      "Ãª": 853,
      "Åĵ": 854,
      "Ġomelette": 855,
      "ĠÅĵ": 856,
      "ĠWhat": 857,
      "ĠÅĵufs": 858,
      "nelle": 859,
      "ran": 860,
      "cla": 861,
      "irÃ©": 862,
      "ses": 863,
      "Ġpha": 864,
      "erre": 865,
      "Ġlune": 866,
      "quer": 867,
      "ĠÃ©cla": 868,
      "ĠPourquoi": 869,
      "Ġgra": 870,
      "ĠLune": 871,
      "pliquer": 872,
      "ĠTerre": 873,
      "irÃ©e": 874,
      "Ġphases": 875,
      "ĠÃ©clairÃ©e": 876,
      "dre": 877,
      "Ġba": 878,
      "Ġtex": 879,
      "Ġfaire": 880,
      "hÃ¨": 881,
      "je": 882,
      "ot": 883,
      "osy": 884,
      "nthÃ¨": 885,
      "Ã©nÃ©": 886,
      "tation": 887,
      "oxy": 888,
      "ĠgÃ©nÃ©": 889,
      "ĠQuel": 890,
      "Ġphot": 891,
      "osynthÃ¨": 892,
      "ĠphotosynthÃ¨": 893,
      "ĠphotosynthÃ¨se": 894,
      "Ġrel": 895,
      "che": 896,
      "ly": 897,
      "nez": 898,
      "ure": 899,
      "yers": 900,
      "ining": 901,
      "Ġlayers": 902,
      "Ġconversationnelle": 903,
      "Ġtraining": 904,
      "pag": 905,
      "Ġentre": 906,
      "Ġweigh": 907,
      "Ġneural": 908,
      "ow": 909,
      "Hell": 910,
      "glis": 911,
      "nglis": 912,
      "Ġas": 913,
      "Ġcan": 914,
      "ĠEnglis": 915,
      "Hello": 916,
      "ĠEnglish": 917,
      "vit": 918,
      "Ġcal": 919,
      "ĠCan": 920,
      "vitÃ©": 921,
      "Ġfond": 922,
      "Le": 923,
      "Ray": 924,
      "aune": 925,
      "hÃ¨re": 926,
      "mos": 927,
      "nom": 928,
      "phÃ¨re": 929,
      "ĠRay": 930,
      "elÃ©": 931,
      "leigh": 932,
      "Ã©nom": 933,
      "Ġcou": 934,
      "Ġcette": 935,
      "Ġcause": 936,
      "ouge": 937,
      "usion": 938,
      "Ġsens": 939,
      "ortion": 940,
      "Ġterr": 941,
      "cement": 942,
      "Ġrouge": 943,
      "verse": 944,
      "usent": 945,
      "ĠÃ©tant": 946,
      "Ġjaune": 947,
      "ĠmolÃ©": 948,
      "olet": 949,
      "ĠLors": 950,
      "estre": 951,
      "Ġtraverse": 952,
      "air": 953,
      "Ġlongues": 954,
      "atmos": 955,
      "Ġcourtes": 956,
      "ibles": 957,
      "Ġdiffusion": 958,
      "Ġdiffusent": 959,
      "Ġefficacement": 960,
      "miÃ¨re": 961,
      "Ġyeux": 962,
      "ĠNos": 963,
      "ĠappelÃ©": 964,
      "ĠphÃ©nom": 965,
      "cevons": 966,
      "Ġpercevons": 967,
      "ĠlumiÃ¨re": 968,
      "Ġviolet": 969,
      "cules": 970,
      "ĠRayleigh": 971,
      "Ġcouleur": 972,
      "Ġsensibles": 973,
      "Ġterrestre": 974,
      "ĠmolÃ©cules": 975,
      "ĠLorsque": 976,
      "atmosphÃ¨re": 977,
      "ĠphÃ©nomÃ¨ne": 978,
      "La": 979,
      "Merci": 980,
      "bord": 981,
      "cs": 982,
      "der": 983,
      "dÃ©pen": 984,
      "eff": 985,
      "for": 986,
      "fess": 987,
      "gis": 988,
      "hens": 989,
      "ior": 990,
      "ible": 991,
      "imm": 992,
      "mer": 993,
      "mula": 994,
      "net": 995,
      "otez": 996,
      "pon": 997,
      "ption": 998,
      "rior": 999
    },
    "merges": [
      [
        "č",
        "Ċ"
      ],
      [
        "o",
        "n"
      ],
      [
        "e",
        "s"
      ],
      [
        "Ġ",
        "a"
      ],
      [
        "n",
        "t"
      ],
      [
        "i",
        "s"
      ],
      [
        "e",
        "l"
      ],
      [
        "Ġ",
        "p"
      ],
      [
        "l",
        "e"
      ],
      [
        "Ã",
        "©"
      ],
      [
        "Ġ",
        "c"
      ],
      [
        "Ġ",
        "d"
      ],
      [
        "t",
        "i"
      ],
      [
        "e",
        "r"
      ],
      [
        "o",
        "u"
      ],
      [
        "r",
        "e"
      ],
      [
        "t",
        "e"
      ],
      [
        "Ġ",
        "e"
      ],
      [
        "u",
        "n"
      ],
      [
        "Ġ",
        "l"
      ],
      [
        "<",
        "/"
      ],
      [
        "<",
        "|"
      ],
      [
        "|",
        ">"
      ],
      [
        "Ġ",
        "un"
      ],
      [
        "t",
        "a"
      ],
      [
        "u",
        "s"
      ],
      [
        "ti",
        "on"
      ],
      [
        ".",
        "</"
      ],
      [
        "s",
        "s"
      ],
      [
        "Ġe",
        "t"
      ],
      [
        "ou",
        "r"
      ],
      [
        "q",
        "u"
      ],
      [
        "ta",
        "nt"
      ],
      [
        "Ġ",
        "s"
      ],
      [
        "o",
        "m"
      ],
      [
        "ss",
        "is"
      ],
      [
        "Ġ",
        "m"
      ],
      [
        "ssis",
        "tant"
      ],
      [
        "i",
        "n"
      ],
      [
        "Ġc",
        "on"
      ],
      [
        "o",
        "r"
      ],
      [
        "Ġp",
        "r"
      ],
      [
        "e",
        "n"
      ],
      [
        "Ġ",
        "V"
      ],
      [
        "Ġd",
        "e"
      ],
      [
        "Ġ",
        "A"
      ],
      [
        "o",
        "x"
      ],
      [
        "Ġ",
        "t"
      ],
      [
        "c",
        "e"
      ],
      [
        "a",
        "l"
      ],
      [
        "m",
        "e"
      ],
      [
        "Ġ",
        "r"
      ],
      [
        "Ġun",
        "e"
      ],
      [
        "ĠV",
        "ox"
      ],
      [
        "ĠVox",
        "el"
      ],
      [
        "Ġl",
        "a"
      ],
      [
        "a",
        "r"
      ],
      [
        "l",
        "a"
      ],
      [
        "te",
        "m"
      ],
      [
        "Ġ",
        "es"
      ],
      [
        "Ġ",
        "v"
      ],
      [
        "er",
        "s"
      ],
      [
        "a",
        "tion"
      ],
      [
        "ĠA",
        "I"
      ],
      [
        "s",
        "y"
      ],
      [
        "c",
        "i"
      ],
      [
        "us",
        "er"
      ],
      [
        "e",
        "u"
      ],
      [
        "Ġ",
        "Ã"
      ],
      [
        "a",
        "ssistant"
      ],
      [
        "s",
        "tem"
      ],
      [
        "sy",
        "stem"
      ],
      [
        "a",
        "n"
      ],
      [
        "Ġ",
        "b"
      ],
      [
        "?",
        "</"
      ],
      [
        "v",
        "ers"
      ],
      [
        "i",
        "l"
      ],
      [
        "Ġ",
        "f"
      ],
      [
        "i",
        "nt"
      ],
      [
        "el",
        "le"
      ],
      [
        "ĠÃ",
        "ł"
      ],
      [
        "Ã",
        "¨"
      ],
      [
        "e",
        "c"
      ],
      [
        "me",
        "nt"
      ],
      [
        "t",
        "u"
      ],
      [
        "r",
        "ti"
      ],
      [
        "Ġa",
        "rti"
      ],
      [
        "Ġcon",
        "vers"
      ],
      [
        "Ġconvers",
        "ation"
      ],
      [
        "r",
        "a"
      ],
      [
        "qu",
        "e"
      ],
      [
        "c",
        "is"
      ],
      [
        "Ġe",
        "n"
      ],
      [
        "i",
        "g"
      ],
      [
        "f",
        "i"
      ],
      [
        "Ġ",
        "?</"
      ],
      [
        "Ġ",
        "le"
      ],
      [
        "Ġa",
        "u"
      ],
      [
        "n",
        "d"
      ],
      [
        "Ġl",
        "es"
      ],
      [
        "Ġ",
        "n"
      ],
      [
        "c",
        "h"
      ],
      [
        "us",
        "e"
      ],
      [
        "Ġa",
        "ssistant"
      ],
      [
        "i",
        "t"
      ],
      [
        "T",
        "u"
      ],
      [
        "j",
        "our"
      ],
      [
        "Ġ",
        "int"
      ],
      [
        "Ġpr",
        "o"
      ],
      [
        "Ġ",
        "h"
      ],
      [
        "el",
        "l"
      ],
      [
        "o",
        "i"
      ],
      [
        "ou",
        "s"
      ],
      [
        "Ġp",
        "our"
      ],
      [
        "s",
        "e"
      ],
      [
        "en",
        "ce"
      ],
      [
        "Ġ",
        "re"
      ],
      [
        "Ġ",
        "qu"
      ],
      [
        "Ġ",
        ":"
      ],
      [
        "Ġa",
        "nd"
      ],
      [
        "eu",
        "r"
      ],
      [
        "u",
        "l"
      ],
      [
        "Ġm",
        "a"
      ],
      [
        "m",
        "p"
      ],
      [
        "Ġ",
        "Ã©"
      ],
      [
        "a",
        "nt"
      ],
      [
        "Ġc",
        "om"
      ],
      [
        "Ġes",
        "t"
      ],
      [
        "h",
        "a"
      ],
      [
        "e",
        "z"
      ],
      [
        "u",
        "r"
      ],
      [
        "Ġarti",
        "fi"
      ],
      [
        "Ġconversation",
        "n"
      ],
      [
        "ig",
        "ence"
      ],
      [
        "ell",
        "igence"
      ],
      [
        "Ġartifi",
        "ci"
      ],
      [
        "e",
        "t"
      ],
      [
        "Ġa",
        "v"
      ],
      [
        "Ġ",
        "("
      ],
      [
        "Ġ",
        "P"
      ],
      [
        "i",
        "re"
      ],
      [
        "Ġa",
        "re"
      ],
      [
        "Ġr",
        "Ã©"
      ],
      [
        "Ġpr",
        "Ã©"
      ],
      [
        "Ġint",
        "elligence"
      ],
      [
        "Ġp",
        "ar"
      ],
      [
        "in",
        "g"
      ],
      [
        "n",
        "Ã©"
      ],
      [
        "Ġartifici",
        "elle"
      ],
      [
        "o",
        "s"
      ],
      [
        "r",
        "Ã©"
      ],
      [
        "u",
        "t"
      ],
      [
        "u",
        "la"
      ],
      [
        "c",
        "tion"
      ],
      [
        "Ġconversationn",
        "el"
      ],
      [
        "Ġd",
        "es"
      ],
      [
        "Ġav",
        "ec"
      ],
      [
        "b",
        "le"
      ],
      [
        "g",
        "e"
      ],
      [
        "Q",
        "u"
      ],
      [
        "an",
        "s"
      ],
      [
        "ĠprÃ©",
        "cis"
      ],
      [
        "p",
        "p"
      ],
      [
        "Ġr",
        "es"
      ],
      [
        "u",
        "ti"
      ],
      [
        "Ġ",
        "uti"
      ],
      [
        "B",
        "on"
      ],
      [
        "Bon",
        "jour"
      ],
      [
        "Ã",
        "®"
      ],
      [
        "Ġ",
        "g"
      ],
      [
        "g",
        "u"
      ],
      [
        "Ġ",
        "S"
      ],
      [
        "un",
        "e"
      ],
      [
        "f",
        "f"
      ],
      [
        "i",
        "d"
      ],
      [
        "Ġcon",
        "cis"
      ],
      [
        "Y",
        "ou"
      ],
      [
        "c",
        "ula"
      ],
      [
        "f",
        "ul"
      ],
      [
        "p",
        "ful"
      ],
      [
        "el",
        "pful"
      ],
      [
        "Ġarti",
        "cula"
      ],
      [
        "Ġconversation",
        "al"
      ],
      [
        "Ġh",
        "elpful"
      ],
      [
        "Ġuti",
        "le"
      ],
      [
        "Ġarticula",
        "te"
      ],
      [
        "i",
        "te"
      ],
      [
        "on",
        "d"
      ],
      [
        "t",
        "h"
      ],
      [
        "Ġ",
        "j"
      ],
      [
        "e",
        "use"
      ],
      [
        "Ġ",
        "te"
      ],
      [
        "Ġ",
        "!"
      ],
      [
        "Ġ",
        "w"
      ],
      [
        "es",
        "s"
      ],
      [
        "Ġ",
        "o"
      ],
      [
        "Ġ",
        "Qu"
      ],
      [
        "Ġv",
        "ous"
      ],
      [
        "i",
        "on"
      ],
      [
        "Ġm",
        "o"
      ],
      [
        "e",
        "nt"
      ],
      [
        "o",
        "le"
      ],
      [
        "a",
        "ti"
      ],
      [
        "Ġ",
        "L"
      ],
      [
        "es",
        "t"
      ],
      [
        "m",
        "oi"
      ],
      [
        "n",
        "e"
      ],
      [
        "Ã¨",
        "re"
      ],
      [
        "p",
        "ec"
      ],
      [
        "Ġ",
        "C"
      ],
      [
        "Ġc",
        "la"
      ],
      [
        "tu",
        "euse"
      ],
      [
        "et",
        "te"
      ],
      [
        "Ġres",
        "pec"
      ],
      [
        "Ġcla",
        "ire"
      ],
      [
        "Ġrespec",
        "tueuse"
      ],
      [
        "e",
        "mp"
      ],
      [
        "l",
        "i"
      ],
      [
        "Ġe",
        "x"
      ],
      [
        "eu",
        "x"
      ],
      [
        "u",
        "is"
      ],
      [
        "Ġd",
        "i"
      ],
      [
        "Ġt",
        "r"
      ],
      [
        "Ġ",
        "in"
      ],
      [
        "in",
        "s"
      ],
      [
        "c",
        "om"
      ],
      [
        "a",
        "ge"
      ],
      [
        "t",
        "es"
      ],
      [
        "le",
        "u"
      ],
      [
        "Ġb",
        "leu"
      ],
      [
        "i",
        "v"
      ],
      [
        "Ġ",
        "2"
      ],
      [
        "a",
        "is"
      ],
      [
        "g",
        "i"
      ],
      [
        "Ġ",
        "is"
      ],
      [
        "ole",
        "il"
      ],
      [
        "Ġ",
        "ou"
      ],
      [
        "Ã®",
        "t"
      ],
      [
        "l",
        "Ã©"
      ],
      [
        "eur",
        "s"
      ],
      [
        "o",
        "is"
      ],
      [
        "Ġp",
        "l"
      ],
      [
        "Ġau",
        "t"
      ],
      [
        "Ġc",
        "ha"
      ],
      [
        "m",
        "m"
      ],
      [
        "Ġp",
        "la"
      ],
      [
        "a",
        "te"
      ],
      [
        "Ġt",
        "ou"
      ],
      [
        "p",
        "li"
      ],
      [
        "on",
        "s"
      ],
      [
        "¢",
        "ch"
      ],
      [
        "Ã",
        "¢ch"
      ],
      [
        "Ġt",
        "Ã¢ch"
      ],
      [
        "Ġf",
        "a"
      ],
      [
        "Ġpro",
        "g"
      ],
      [
        "S",
        "al"
      ],
      [
        "Sal",
        "ut"
      ],
      [
        "r",
        "u"
      ],
      [
        "Ġ",
        "x"
      ],
      [
        "on",
        "ction"
      ],
      [
        "Ġf",
        "onction"
      ],
      [
        "l",
        "o"
      ],
      [
        "Ġ",
        "que"
      ],
      [
        "p",
        "en"
      ],
      [
        "i",
        "mp"
      ],
      [
        "n",
        "er"
      ],
      [
        "Ġt",
        "h"
      ],
      [
        "tu",
        "re"
      ],
      [
        "nÃ©",
        "es"
      ],
      [
        "om",
        "m"
      ],
      [
        "Ġs",
        "ur"
      ],
      [
        "Ġt",
        "ra"
      ],
      [
        "or",
        "d"
      ],
      [
        "a",
        "u"
      ],
      [
        "c",
        "ess"
      ],
      [
        "o",
        "d"
      ],
      [
        "tem",
        "p"
      ],
      [
        "Ġpro",
        "cess"
      ],
      [
        "p",
        "a"
      ],
      [
        "t",
        "Ã©"
      ],
      [
        "ig",
        "h"
      ],
      [
        "l",
        "es"
      ],
      [
        "a",
        "i"
      ],
      [
        "e",
        "x"
      ],
      [
        "i",
        "el"
      ],
      [
        "on",
        "gu"
      ],
      [
        "Ġc",
        "iel"
      ],
      [
        "Ġl",
        "ongu"
      ],
      [
        "Ġcom",
        "p"
      ],
      [
        "Ġa",
        "l"
      ],
      [
        "a",
        "t"
      ],
      [
        "Ġc",
        "our"
      ],
      [
        "ĠS",
        "oleil"
      ],
      [
        "Ġd",
        "ans"
      ],
      [
        "qu",
        "es"
      ],
      [
        "i",
        "en"
      ],
      [
        "Ġpl",
        "us"
      ],
      [
        "Ġpla",
        "Ã®t"
      ],
      [
        "i",
        "b"
      ],
      [
        "Ġdi",
        "ff"
      ],
      [
        "c",
        "a"
      ],
      [
        "f",
        "fi"
      ],
      [
        "Ġd",
        "on"
      ],
      [
        "Ġe",
        "ffi"
      ],
      [
        "Ġeffi",
        "ca"
      ],
      [
        "Ġv",
        "os"
      ],
      [
        "J",
        "e"
      ],
      [
        "m",
        "i"
      ],
      [
        "Ġ",
        "temp"
      ],
      [
        "Ġp",
        "uis"
      ],
      [
        "Ġ",
        "y"
      ],
      [
        "a",
        "pp"
      ],
      [
        "Ġcha",
        "que"
      ],
      [
        "D",
        "is"
      ],
      [
        "t",
        "re"
      ],
      [
        "n",
        "o"
      ],
      [
        "Ġ",
        "3"
      ],
      [
        "Ġla",
        "n"
      ],
      [
        "Ġv",
        "o"
      ],
      [
        "Ġqu",
        "i"
      ],
      [
        "c",
        "r"
      ],
      [
        "Ã",
        "§"
      ],
      [
        "Ġe",
        "nt"
      ],
      [
        "Ġf",
        "or"
      ],
      [
        "Ġex",
        "emp"
      ],
      [
        "Ġm",
        "in"
      ],
      [
        "ra",
        "mm"
      ],
      [
        "Ġprog",
        "ramm"
      ],
      [
        "8",
        "6"
      ],
      [
        "R",
        "M"
      ],
      [
        "ĠA",
        "RM"
      ],
      [
        "or",
        "s"
      ],
      [
        "Ġint",
        "er"
      ],
      [
        "a",
        "ble"
      ],
      [
        "Ġl",
        "o"
      ],
      [
        "Ġ",
        "5"
      ],
      [
        "es",
        "tion"
      ],
      [
        "Ġs",
        "u"
      ],
      [
        "or",
        "it"
      ],
      [
        "Ġqu",
        "estion"
      ],
      [
        "h",
        "u"
      ],
      [
        "t",
        "ru"
      ],
      [
        "Ġp",
        "omm"
      ],
      [
        "or",
        "k"
      ],
      [
        "jour",
        "d"
      ],
      [
        "ction",
        "s"
      ],
      [
        "ins",
        "tru"
      ],
      [
        "Ġaut",
        "om"
      ],
      [
        "hu",
        "i"
      ],
      [
        "Ġpomm",
        "es"
      ],
      [
        "instru",
        "ctions"
      ],
      [
        "Ġ",
        "N"
      ],
      [
        "Ġa",
        "pp"
      ],
      [
        "m",
        "ati"
      ],
      [
        "o",
        "ci"
      ],
      [
        "t",
        "er"
      ],
      [
        "Ġa",
        "ss"
      ],
      [
        "Ġma",
        "ti"
      ],
      [
        "Ġma",
        "th"
      ],
      [
        "Ġass",
        "oci"
      ],
      [
        "Ġ",
        "T"
      ],
      [
        "Ġd",
        "u"
      ],
      [
        "o",
        "se"
      ],
      [
        "Ġp",
        "h"
      ],
      [
        "Ã©",
        "e"
      ],
      [
        "re",
        "n"
      ],
      [
        "Ġs",
        "imp"
      ],
      [
        "Ġsimp",
        "le"
      ],
      [
        "Ġp",
        "re"
      ],
      [
        "om",
        "ment"
      ],
      [
        "Ġm",
        "an"
      ],
      [
        "te",
        "z"
      ],
      [
        "ar",
        "ch"
      ],
      [
        "in",
        "e"
      ],
      [
        "a",
        "ta"
      ],
      [
        "Ġ",
        "E"
      ],
      [
        "Ġd",
        "ata"
      ],
      [
        "te",
        "d"
      ],
      [
        "Ġw",
        "e"
      ],
      [
        "t",
        "s"
      ],
      [
        "el",
        "ette"
      ],
      [
        "om",
        "elette"
      ],
      [
        "Ġo",
        "f"
      ],
      [
        "Ġth",
        "e"
      ],
      [
        "Ġ",
        "I"
      ],
      [
        "ond",
        "e"
      ],
      [
        "Ġlongu",
        "eurs"
      ],
      [
        ")",
        "."
      ],
      [
        "a",
        "use"
      ],
      [
        "en",
        "s"
      ],
      [
        "Ġcom",
        "me"
      ],
      [
        "V",
        "oi"
      ],
      [
        "a",
        "il"
      ],
      [
        "r",
        "d"
      ],
      [
        "v",
        "ail"
      ],
      [
        "Ġ",
        "W"
      ],
      [
        "Ã©",
        "s"
      ],
      [
        "Ġc",
        "ar"
      ],
      [
        "un",
        "ion"
      ],
      [
        "ta",
        "rd"
      ],
      [
        "Ġs",
        "a"
      ],
      [
        "Ġcon",
        "se"
      ],
      [
        "Ġpr",
        "i"
      ],
      [
        "il",
        "s"
      ],
      [
        "ra",
        "Ã®"
      ],
      [
        "Ġre",
        "tard"
      ],
      [
        "ĠrÃ©",
        "union"
      ],
      [
        "ĠC",
        "omment"
      ],
      [
        "Ġtr",
        "ois"
      ],
      [
        "ĠtÃ¢ch",
        "es"
      ],
      [
        "ex",
        "c"
      ],
      [
        "Ġmati",
        "n"
      ],
      [
        "Voi",
        "ci"
      ],
      [
        "Ġconse",
        "ils"
      ],
      [
        "raÃ®",
        "nÃ©"
      ],
      [
        "e",
        "ment"
      ],
      [
        "Ġa",
        "n"
      ],
      [
        "Ġc",
        "rÃ©"
      ],
      [
        "Ġd",
        "is"
      ],
      [
        "Ġcom",
        "m"
      ],
      [
        "l",
        "on"
      ],
      [
        "p",
        "e"
      ],
      [
        "le",
        "ur"
      ],
      [
        "Ġtemp",
        "s"
      ],
      [
        "p",
        "ar"
      ],
      [
        "com",
        "me"
      ],
      [
        "Ġexemp",
        "le"
      ],
      [
        "c",
        "es"
      ],
      [
        "s",
        "an"
      ],
      [
        "Ġ",
        "="
      ],
      [
        "Ã©",
        "ner"
      ],
      [
        "ti",
        "que"
      ],
      [
        "Ġb",
        "ien"
      ],
      [
        "gi",
        "e"
      ],
      [
        "san",
        "ce"
      ],
      [
        "Ã©ner",
        "gie"
      ],
      [
        "a",
        "d"
      ],
      [
        "v",
        "el"
      ],
      [
        "w",
        "ork"
      ],
      [
        "y",
        "th"
      ],
      [
        "Ġ",
        "jour"
      ],
      [
        "Ġpr",
        "int"
      ],
      [
        "Ġn",
        "eur"
      ],
      [
        "Ġn",
        "et"
      ],
      [
        "ĠrÃ©",
        "s"
      ],
      [
        "gu",
        "age"
      ],
      [
        "emp",
        "s"
      ],
      [
        "Ġlan",
        "guage"
      ],
      [
        "Ġprogramm",
        "ing"
      ],
      [
        "yth",
        "on"
      ],
      [
        "Ġjour",
        "nÃ©es"
      ],
      [
        "Ġprint",
        "emps"
      ],
      [
        "Ġnet",
        "work"
      ],
      [
        "l",
        "is"
      ],
      [
        "Ġ",
        "D"
      ],
      [
        "er",
        "ci"
      ],
      [
        "ce",
        "v"
      ],
      [
        "it",
        "s"
      ],
      [
        "ha",
        "t"
      ],
      [
        "a",
        "re"
      ],
      [
        "f",
        "t"
      ],
      [
        "m",
        "ble"
      ],
      [
        "n",
        "a"
      ],
      [
        "o",
        "ft"
      ],
      [
        "s",
        "our"
      ],
      [
        "w",
        "are"
      ],
      [
        "Ġp",
        "er"
      ],
      [
        "Ã©",
        "es"
      ],
      [
        "Ã©",
        "mati"
      ],
      [
        "Ġs",
        "oft"
      ],
      [
        "Ġr",
        "Ã¨"
      ],
      [
        "Ġen",
        "se"
      ],
      [
        "it",
        "y"
      ],
      [
        "Ġy",
        "ou"
      ],
      [
        "Ġmath",
        "Ã©mati"
      ],
      [
        "Ġassoci",
        "e"
      ],
      [
        "sour",
        "ce"
      ],
      [
        "Ġsoft",
        "ware"
      ],
      [
        "ĠrÃ¨",
        "g"
      ],
      [
        "Ġense",
        "mble"
      ],
      [
        "ĠmathÃ©mati",
        "ques"
      ],
      [
        "d",
        "i"
      ],
      [
        "Ġ",
        "elle"
      ],
      [
        "Ġc",
        "e"
      ],
      [
        "Ġsu",
        "ite"
      ],
      [
        ")",
        ","
      ],
      [
        "I",
        "S"
      ],
      [
        "c",
        "ture"
      ],
      [
        "d",
        "ant"
      ],
      [
        "p",
        "ose"
      ],
      [
        "ª",
        "tre"
      ],
      [
        "Ġ",
        "Bonjour"
      ],
      [
        "on",
        "ne"
      ],
      [
        "Ġp",
        "o"
      ],
      [
        "our",
        "qu"
      ],
      [
        "ĠÃ",
        "ªtre"
      ],
      [
        "Ġn",
        "ous"
      ],
      [
        "Ġre",
        "pose"
      ],
      [
        "ĠÃ©",
        "ta"
      ],
      [
        "Ġg",
        "ar"
      ],
      [
        "ite",
        "cture"
      ],
      [
        "Ġj",
        "eu"
      ],
      [
        "Ġprocess",
        "eur"
      ],
      [
        "arch",
        "itecture"
      ],
      [
        "IS",
        "C"
      ],
      [
        "ourqu",
        "oi"
      ],
      [
        "Ġl",
        "u"
      ],
      [
        "or",
        "t"
      ],
      [
        "Ġv",
        "a"
      ],
      [
        "Ã¨",
        "ne"
      ],
      [
        "g",
        "an"
      ],
      [
        "Ġp",
        "eu"
      ],
      [
        "er",
        "r"
      ],
      [
        "Ġm",
        "i"
      ],
      [
        "or",
        "gan"
      ],
      [
        "Ġv",
        "i"
      ],
      [
        "organ",
        "is"
      ],
      [
        "a",
        "y"
      ],
      [
        "p",
        "r"
      ],
      [
        "r",
        "es"
      ],
      [
        "Ġcon",
        "n"
      ],
      [
        "ent",
        "s"
      ],
      [
        "iv",
        "ement"
      ],
      [
        "i",
        "able"
      ],
      [
        "Ġ",
        "J"
      ],
      [
        "Ã©",
        "pen"
      ],
      [
        "Ġs",
        "ec"
      ],
      [
        "Ġs",
        "ans"
      ],
      [
        "ar",
        "iable"
      ],
      [
        "Ġv",
        "ariable"
      ],
      [
        "Ġau",
        "jourd"
      ],
      [
        "u",
        "ff"
      ],
      [
        "er",
        "v"
      ],
      [
        "Ġs",
        "on"
      ],
      [
        "Ġs",
        "erv"
      ],
      [
        "Ġtou",
        "t"
      ],
      [
        "c",
        "ul"
      ],
      [
        "i",
        "Ã¨re"
      ],
      [
        "s",
        "age"
      ],
      [
        "nt",
        "is"
      ],
      [
        "re",
        "ntis"
      ],
      [
        "Ġs",
        "ci"
      ],
      [
        "la",
        "nt"
      ],
      [
        "ati",
        "que"
      ],
      [
        "Ġtr",
        "ans"
      ],
      [
        "lo",
        "gi"
      ],
      [
        "app",
        "rentis"
      ],
      [
        "Ġautom",
        "atique"
      ],
      [
        "Ġman",
        "iÃ¨re"
      ],
      [
        "apprentis",
        "sage"
      ],
      [
        "a",
        "ite"
      ],
      [
        "c",
        "k"
      ],
      [
        "c",
        "al"
      ],
      [
        "c",
        "com"
      ],
      [
        "e",
        "au"
      ],
      [
        "f",
        "aite"
      ],
      [
        "Ġ",
        "ord"
      ],
      [
        "Ġm",
        "on"
      ],
      [
        "Ġpar",
        "faite"
      ],
      [
        "Ġres",
        "te"
      ],
      [
        "pli",
        "r"
      ],
      [
        "ĠtÃ¢ch",
        "e"
      ],
      [
        "ter",
        "n"
      ],
      [
        "ccom",
        "plir"
      ],
      [
        "c",
        "on"
      ],
      [
        "d",
        "u"
      ],
      [
        "g",
        "orit"
      ],
      [
        "h",
        "me"
      ],
      [
        "p",
        "ond"
      ],
      [
        "t",
        "te"
      ],
      [
        "´",
        "t"
      ],
      [
        "Ã",
        "´t"
      ],
      [
        "Ġ",
        "4"
      ],
      [
        "ĠV",
        "ous"
      ],
      [
        "Ġn",
        "om"
      ],
      [
        "ĠrÃ©",
        "pond"
      ],
      [
        "Ġal",
        "gorit"
      ],
      [
        "Ġquestion",
        "s"
      ],
      [
        "Ġsimple",
        "ment"
      ],
      [
        "Ġcomm",
        "un"
      ],
      [
        "ĠrÃ©pond",
        "re"
      ],
      [
        "Ġalgorit",
        "hme"
      ],
      [
        "d",
        "Ã¨"
      ],
      [
        "Ġcon",
        "Ã§"
      ],
      [
        "Ġmo",
        "dÃ¨"
      ],
      [
        "Ġent",
        "raÃ®nÃ©"
      ],
      [
        "ĠconÃ§",
        "u"
      ],
      [
        "f",
        "s"
      ],
      [
        "u",
        "fs"
      ],
      [
        "Ã",
        "ª"
      ],
      [
        "Å",
        "ĵ"
      ],
      [
        "Ġ",
        "omelette"
      ],
      [
        "Ġ",
        "Åĵ"
      ],
      [
        "ĠW",
        "hat"
      ],
      [
        "ĠÅĵ",
        "ufs"
      ],
      [
        "n",
        "elle"
      ],
      [
        "r",
        "an"
      ],
      [
        "c",
        "la"
      ],
      [
        "i",
        "rÃ©"
      ],
      [
        "s",
        "es"
      ],
      [
        "Ġp",
        "ha"
      ],
      [
        "er",
        "re"
      ],
      [
        "Ġl",
        "une"
      ],
      [
        "qu",
        "er"
      ],
      [
        "ĠÃ©",
        "cla"
      ],
      [
        "ĠP",
        "ourquoi"
      ],
      [
        "Ġg",
        "ra"
      ],
      [
        "ĠL",
        "une"
      ],
      [
        "pli",
        "quer"
      ],
      [
        "ĠT",
        "erre"
      ],
      [
        "irÃ©",
        "e"
      ],
      [
        "Ġpha",
        "ses"
      ],
      [
        "ĠÃ©cla",
        "irÃ©e"
      ],
      [
        "d",
        "re"
      ],
      [
        "Ġb",
        "a"
      ],
      [
        "Ġte",
        "x"
      ],
      [
        "Ġfa",
        "ire"
      ],
      [
        "h",
        "Ã¨"
      ],
      [
        "j",
        "e"
      ],
      [
        "o",
        "t"
      ],
      [
        "o",
        "sy"
      ],
      [
        "nt",
        "hÃ¨"
      ],
      [
        "Ã©",
        "nÃ©"
      ],
      [
        "ta",
        "tion"
      ],
      [
        "ox",
        "y"
      ],
      [
        "Ġg",
        "Ã©nÃ©"
      ],
      [
        "ĠQu",
        "el"
      ],
      [
        "Ġph",
        "ot"
      ],
      [
        "osy",
        "nthÃ¨"
      ],
      [
        "Ġphot",
        "osynthÃ¨"
      ],
      [
        "ĠphotosynthÃ¨",
        "se"
      ],
      [
        "Ġr",
        "el"
      ],
      [
        "ch",
        "e"
      ],
      [
        "l",
        "y"
      ],
      [
        "n",
        "ez"
      ],
      [
        "u",
        "re"
      ],
      [
        "y",
        "ers"
      ],
      [
        "in",
        "ing"
      ],
      [
        "Ġla",
        "yers"
      ],
      [
        "Ġconversationn",
        "elle"
      ],
      [
        "Ġtra",
        "ining"
      ],
      [
        "pa",
        "g"
      ],
      [
        "Ġent",
        "re"
      ],
      [
        "Ġwe",
        "igh"
      ],
      [
        "Ġneur",
        "al"
      ],
      [
        "o",
        "w"
      ],
      [
        "H",
        "ell"
      ],
      [
        "g",
        "lis"
      ],
      [
        "n",
        "glis"
      ],
      [
        "Ġa",
        "s"
      ],
      [
        "Ġc",
        "an"
      ],
      [
        "ĠE",
        "nglis"
      ],
      [
        "Hell",
        "o"
      ],
      [
        "ĠEnglis",
        "h"
      ],
      [
        "v",
        "it"
      ],
      [
        "Ġc",
        "al"
      ],
      [
        "ĠC",
        "an"
      ],
      [
        "vit",
        "Ã©"
      ],
      [
        "Ġf",
        "ond"
      ],
      [
        "L",
        "e"
      ],
      [
        "R",
        "ay"
      ],
      [
        "a",
        "une"
      ],
      [
        "h",
        "Ã¨re"
      ],
      [
        "m",
        "os"
      ],
      [
        "n",
        "om"
      ],
      [
        "p",
        "hÃ¨re"
      ],
      [
        "Ġ",
        "Ray"
      ],
      [
        "el",
        "Ã©"
      ],
      [
        "le",
        "igh"
      ],
      [
        "Ã©",
        "nom"
      ],
      [
        "Ġc",
        "ou"
      ],
      [
        "Ġc",
        "ette"
      ],
      [
        "Ġc",
        "ause"
      ],
      [
        "ou",
        "ge"
      ],
      [
        "us",
        "ion"
      ],
      [
        "Ġs",
        "ens"
      ],
      [
        "or",
        "tion"
      ],
      [
        "Ġt",
        "err"
      ],
      [
        "ce",
        "ment"
      ],
      [
        "Ġr",
        "ouge"
      ],
      [
        "vers",
        "e"
      ],
      [
        "use",
        "nt"
      ],
      [
        "ĠÃ©",
        "tant"
      ],
      [
        "Ġj",
        "aune"
      ],
      [
        "Ġmo",
        "lÃ©"
      ],
      [
        "ole",
        "t"
      ],
      [
        "ĠL",
        "ors"
      ],
      [
        "est",
        "re"
      ],
      [
        "Ġtra",
        "verse"
      ],
      [
        "ai",
        "r"
      ],
      [
        "Ġlongu",
        "es"
      ],
      [
        "at",
        "mos"
      ],
      [
        "Ġcour",
        "tes"
      ],
      [
        "ib",
        "les"
      ],
      [
        "Ġdiff",
        "usion"
      ],
      [
        "Ġdiff",
        "usent"
      ],
      [
        "Ġeffica",
        "cement"
      ],
      [
        "mi",
        "Ã¨re"
      ],
      [
        "Ġy",
        "eux"
      ],
      [
        "ĠN",
        "os"
      ],
      [
        "Ġapp",
        "elÃ©"
      ],
      [
        "Ġph",
        "Ã©nom"
      ],
      [
        "cev",
        "ons"
      ],
      [
        "Ġper",
        "cevons"
      ],
      [
        "Ġlu",
        "miÃ¨re"
      ],
      [
        "Ġvi",
        "olet"
      ],
      [
        "cul",
        "es"
      ],
      [
        "ĠRay",
        "leigh"
      ],
      [
        "Ġcou",
        "leur"
      ],
      [
        "Ġsens",
        "ibles"
      ],
      [
        "Ġterr",
        "estre"
      ],
      [
        "ĠmolÃ©",
        "cules"
      ],
      [
        "ĠLors",
        "que"
      ],
      [
        "atmos",
        "phÃ¨re"
      ],
      [
        "ĠphÃ©nom",
        "Ã¨ne"
      ],
      [
        "L",
        "a"
      ],
      [
        "M",
        "erci"
      ],
      [
        "b",
        "ord"
      ],
      [
        "c",
        "s"
      ],
      [
        "d",
        "er"
      ],
      [
        "d",
        "Ã©pen"
      ],
      [
        "e",
        "ff"
      ],
      [
        "f",
        "or"
      ],
      [
        "f",
        "ess"
      ],
      [
        "g",
        "is"
      ],
      [
        "h",
        "ens"
      ],
      [
        "i",
        "or"
      ],
      [
        "i",
        "ble"
      ],
      [
        "i",
        "mm"
      ],
      [
        "m",
        "er"
      ],
      [
        "m",
        "ula"
      ],
      [
        "n",
        "et"
      ],
      [
        "o",
        "tez"
      ],
      [
        "p",
        "on"
      ],
      [
        "p",
        "tion"
      ],
      [
        "r",
        "ior"
      ]
    ]
  }
}